#include "magic_wand_model_data.hpp"

alignas(8) const unsigned char train_model_tflite[] = {
  0x1c, 0x00, 0x00, 0x00, 0x54, 0x46, 0x4c, 0x33, 0x14, 0x00, 0x20, 0x00,
  0x1c, 0x00, 0x18, 0x00, 0x14, 0x00, 0x10, 0x00, 0x0c, 0x00, 0x00, 0x00,
  0x08, 0x00, 0x04, 0x00, 0x14, 0x00, 0x00, 0x00, 0x1c, 0x00, 0x00, 0x00,
  0x88, 0x00, 0x00, 0x00, 0xe0, 0x00, 0x00, 0x00, 0xf4, 0x1c, 0x00, 0x00,
  0x04, 0x1d, 0x00, 0x00, 0x60, 0x27, 0x00, 0x00, 0x03, 0x00, 0x00, 0x00,
  0x01, 0x00, 0x00, 0x00, 0x04, 0x00, 0x00, 0x00, 0x02, 0xe2, 0xff, 0xff,
  0x0c, 0x00, 0x00, 0x00, 0x1c, 0x00, 0x00, 0x00, 0x38, 0x00, 0x00, 0x00,
  0x0f, 0x00, 0x00, 0x00, 0x73, 0x65, 0x72, 0x76, 0x69, 0x6e, 0x67, 0x5f,
  0x64, 0x65, 0x66, 0x61, 0x75, 0x6c, 0x74, 0x00, 0x01, 0x00, 0x00, 0x00,
  0x04, 0x00, 0x00, 0x00, 0x94, 0xff, 0xff, 0xff, 0x11, 0x00, 0x00, 0x00,
  0x04, 0x00, 0x00, 0x00, 0x07, 0x00, 0x00, 0x00, 0x64, 0x65, 0x6e, 0x73,
  0x65, 0x5f, 0x31, 0x00, 0x01, 0x00, 0x00, 0x00, 0x04, 0x00, 0x00, 0x00,
  0xe2, 0xe2, 0xff, 0xff, 0x04, 0x00, 0x00, 0x00, 0x0c, 0x00, 0x00, 0x00,
  0x63, 0x6f, 0x6e, 0x76, 0x32, 0x64, 0x5f, 0x69, 0x6e, 0x70, 0x75, 0x74,
  0x00, 0x00, 0x00, 0x00, 0x02, 0x00, 0x00, 0x00, 0x34, 0x00, 0x00, 0x00,
  0x04, 0x00, 0x00, 0x00, 0xdc, 0xff, 0xff, 0xff, 0x14, 0x00, 0x00, 0x00,
  0x04, 0x00, 0x00, 0x00, 0x13, 0x00, 0x00, 0x00, 0x43, 0x4f, 0x4e, 0x56,
  0x45, 0x52, 0x53, 0x49, 0x4f, 0x4e, 0x5f, 0x4d, 0x45, 0x54, 0x41, 0x44,
  0x41, 0x54, 0x41, 0x00, 0x08, 0x00, 0x0c, 0x00, 0x08, 0x00, 0x04, 0x00,
  0x08, 0x00, 0x00, 0x00, 0x13, 0x00, 0x00, 0x00, 0x04, 0x00, 0x00, 0x00,
  0x13, 0x00, 0x00, 0x00, 0x6d, 0x69, 0x6e, 0x5f, 0x72, 0x75, 0x6e, 0x74,
  0x69, 0x6d, 0x65, 0x5f, 0x76, 0x65, 0x72, 0x73, 0x69, 0x6f, 0x6e, 0x00,
  0x15, 0x00, 0x00, 0x00, 0x10, 0x1c, 0x00, 0x00, 0x08, 0x1c, 0x00, 0x00,
  0xd8, 0x1b, 0x00, 0x00, 0x88, 0x1b, 0x00, 0x00, 0xf8, 0x19, 0x00, 0x00,
  0xe8, 0x11, 0x00, 0x00, 0x98, 0x11, 0x00, 0x00, 0x80, 0x11, 0x00, 0x00,
  0x68, 0x11, 0x00, 0x00, 0x58, 0x01, 0x00, 0x00, 0xc8, 0x00, 0x00, 0x00,
  0xc0, 0x00, 0x00, 0x00, 0xb8, 0x00, 0x00, 0x00, 0xb0, 0x00, 0x00, 0x00,
  0xa8, 0x00, 0x00, 0x00, 0xa0, 0x00, 0x00, 0x00, 0x98, 0x00, 0x00, 0x00,
  0x90, 0x00, 0x00, 0x00, 0x88, 0x00, 0x00, 0x00, 0x68, 0x00, 0x00, 0x00,
  0x04, 0x00, 0x00, 0x00, 0xb2, 0xe3, 0xff, 0xff, 0x04, 0x00, 0x00, 0x00,
  0x54, 0x00, 0x00, 0x00, 0x0c, 0x00, 0x00, 0x00, 0x08, 0x00, 0x0e, 0x00,
  0x08, 0x00, 0x04, 0x00, 0x08, 0x00, 0x00, 0x00, 0x10, 0x00, 0x00, 0x00,
  0x24, 0x00, 0x00, 0x00, 0x00, 0x00, 0x06, 0x00, 0x08, 0x00, 0x04, 0x00,
  0x06, 0x00, 0x00, 0x00, 0x04, 0x00, 0x00, 0x00, 0x00, 0x00, 0x00, 0x00,
  0x00, 0x00, 0x0a, 0x00, 0x10, 0x00, 0x0c, 0x00, 0x08, 0x00, 0x04, 0x00,
  0x0a, 0x00, 0x00, 0x00, 0x02, 0x00, 0x00, 0x00, 0x02, 0x00, 0x00, 0x00,
  0x04, 0x00, 0x00, 0x00, 0x06, 0x00, 0x00, 0x00, 0x32, 0x2e, 0x31, 0x32,
  0x2e, 0x30, 0x00, 0x00, 0x12, 0xe4, 0xff, 0xff, 0x04, 0x00, 0x00, 0x00,
  0x10, 0x00, 0x00, 0x00, 0x31, 0x2e, 0x35, 0x2e, 0x30, 0x00, 0x00, 0x00,
  0x00, 0x00, 0x00, 0x00, 0x00, 0x00, 0x00, 0x00, 0x88, 0xda, 0xff, 0xff,
  0x8c, 0xda, 0xff, 0xff, 0x90, 0xda, 0xff, 0xff, 0x94, 0xda, 0xff, 0xff,
  0x98, 0xda, 0xff, 0xff, 0x9c, 0xda, 0xff, 0xff, 0xa0, 0xda, 0xff, 0xff,
  0xa4, 0xda, 0xff, 0xff, 0x4e, 0xe4, 0xff, 0xff, 0x04, 0x00, 0x00, 0x00,
  0x80, 0x00, 0x00, 0x00, 0xb7, 0x92, 0xb5, 0x3e, 0x04, 0xb6, 0x7b, 0x3d,
  0x0c, 0x1c, 0x6f, 0xbe, 0x98, 0x27, 0x2e, 0xbe, 0x59, 0x1f, 0x9e, 0xbe,
  0x50, 0xf0, 0xd7, 0x3e, 0xef, 0x40, 0x64, 0x3d, 0xc7, 0x9c, 0x48, 0x3e,
  0xf3, 0xcb, 0x02, 0x3e, 0x5a, 0x80, 0x8d, 0x3e, 0x9e, 0xa3, 0x07, 0x3d,
  0x0d, 0x60, 0x96, 0xbd, 0x27, 0x56, 0x20, 0xbf, 0xe2, 0xde, 0xf3, 0xbb,
  0xfe, 0xc4, 0x98, 0xbe, 0x9d, 0x7c, 0xde, 0x3b, 0x6d, 0x54, 0x4d, 0xbe,
  0xe5, 0x8e, 0x96, 0xbe, 0xba, 0x95, 0x23, 0xbe, 0x9e, 0x5f, 0x08, 0xbe,
  0x88, 0x4b, 0xe4, 0x3d, 0xbe, 0x56, 0xec, 0xbe, 0x7c, 0x9e, 0x87, 0xbe,
  0x1a, 0xa4, 0x8b, 0xbe, 0x74, 0x72, 0x92, 0xbd, 0xc7, 0xa3, 0xb9, 0x3e,
  0xa3, 0x76, 0x17, 0x3f, 0x16, 0xc2, 0xa9, 0x3c, 0x09, 0x23, 0xef, 0xbe,
  0x4a, 0xca, 0xdf, 0x3e, 0xa6, 0xb4, 0x77, 0xbe, 0x3e, 0xdf, 0xd7, 0x3e,
  0xda, 0xe4, 0xff, 0xff, 0x04, 0x00, 0x00, 0x00, 0x00, 0x10, 0x00, 0x00,
  0xfe, 0x44, 0x3e, 0xbe, 0xb7, 0x37, 0x8d, 0x3d, 0x0c, 0x64, 0xd2, 0x3d,
  0x54, 0x94, 0x1b, 0x3e, 0xe0, 0xa0, 0x18, 0x3c, 0x47, 0xb9, 0x55, 0x3b,
  0x35, 0x27, 0x20, 0xbe, 0x9e, 0x28, 0x5e, 0xbe, 0x18, 0xe4, 0xa9, 0xbe,
  0xba, 0x6d, 0xe9, 0x3d, 0x1e, 0x13, 0x3f, 0xbd, 0xf8, 0x44, 0x78, 0xbe,
  0xb1, 0xb1, 0x3f, 0xbe, 0xb8, 0x96, 0x96, 0xbe, 0x80, 0x84, 0x12, 0x3d,
  0x98, 0xa0, 0x8f, 0xbc, 0x66, 0x04, 0xbe, 0xbd, 0x57, 0x33, 0x59, 0xbe,
  0x89, 0xac, 0x92, 0xbe, 0x36, 0xdc, 0xea, 0xbd, 0x5b, 0xa1, 0xce, 0xbd,
  0x3c, 0xc4, 0x30, 0x3e, 0x42, 0x4b, 0x61, 0x3d, 0x2f, 0xe3, 0x00, 0x3e,
  0x82, 0xe3, 0xba, 0x3d, 0x32, 0x96, 0xc8, 0x3b, 0xc7, 0xf1, 0x81, 0xbd,
  0x02, 0x8d, 0x8b, 0x3c, 0x7e, 0xa8, 0x78, 0xbe, 0x6c, 0xb4, 0x30, 0xbe,
  0x8c, 0x31, 0x0a, 0x3e, 0xf2, 0x10, 0x2b, 0xbe, 0x89, 0x4f, 0x04, 0xbe,
  0xef, 0x52, 0x30, 0xbc, 0xb3, 0xd8, 0x2e, 0xbe, 0x0f, 0x91, 0x34, 0xbb,
  0xb5, 0x7e, 0x09, 0x3e, 0x42, 0x8b, 0x39, 0x3c, 0xf2, 0x3d, 0x4c, 0xbe,
  0x59, 0x37, 0x1c, 0x3e, 0x52, 0x85, 0x88, 0xbd, 0x2f, 0x8e, 0x2c, 0x3e,
  0x06, 0x56, 0x38, 0x3e, 0xa9, 0x79, 0x6a, 0xbe, 0x24, 0xdf, 0xb6, 0x3d,
  0x21, 0x72, 0xf4, 0x3c, 0x2d, 0x37, 0x0c, 0x3e, 0xe5, 0x22, 0x23, 0x3e,
  0x0f, 0xa3, 0x1f, 0xbe, 0x4f, 0xd0, 0x9b, 0xbd, 0xfa, 0xbf, 0xaf, 0xbd,
  0xe2, 0xcb, 0x4c, 0xbd, 0x3a, 0x5d, 0x45, 0xbe, 0x1b, 0x29, 0xb6, 0xbe,
  0x08, 0x4b, 0xc3, 0xbd, 0xfe, 0x92, 0x68, 0xbe, 0x64, 0xbc, 0x87, 0xbe,
  0xea, 0xb5, 0x22, 0x3e, 0xa6, 0xbc, 0xe9, 0x3c, 0xa3, 0xa2, 0x08, 0xbe,
  0xd1, 0xc2, 0x5f, 0xbd, 0xcd, 0xf1, 0x90, 0xbe, 0xe6, 0x35, 0x43, 0x3e,
  0x06, 0x47, 0x65, 0xbe, 0xea, 0x02, 0x21, 0x3e, 0xe3, 0xee, 0x2d, 0xbb,
  0xe0, 0xb7, 0x9b, 0xbc, 0xff, 0x83, 0x60, 0x3e, 0x49, 0xff, 0xc3, 0x3d,
  0xf9, 0x50, 0x28, 0x3b, 0xc6, 0x53, 0x86, 0x3d, 0x4d, 0x88, 0x16, 0xbd,
  0x10, 0x4f, 0x3d, 0xbd, 0x8a, 0x71, 0x64, 0xbe, 0xe9, 0xeb, 0xfe, 0x3b,
  0x05, 0xcc, 0x40, 0x3e, 0x54, 0x42, 0x89, 0xbe, 0x84, 0x8a, 0xf0, 0xbb,
  0x59, 0xeb, 0xbe, 0xbd, 0x13, 0xfa, 0x59, 0xbc, 0xd6, 0x92, 0x60, 0xbd,
  0x86, 0xa4, 0x6d, 0xbe, 0xd9, 0x46, 0x9d, 0x3d, 0x4c, 0xea, 0xf0, 0xbd,
  0xf3, 0x7f, 0x9e, 0xbe, 0x01, 0x60, 0x9d, 0xbe, 0x2a, 0x90, 0x35, 0x3c,
  0xd6, 0x56, 0x09, 0xbe, 0xe3, 0x3e, 0x94, 0xbe, 0x37, 0x6d, 0x29, 0xbd,
  0xcd, 0x85, 0xb0, 0xbd, 0x53, 0x6a, 0xd6, 0xba, 0x30, 0x9a, 0x8f, 0xbe,
  0x6e, 0xdb, 0xd9, 0xbb, 0x38, 0x18, 0x2b, 0x3e, 0x9e, 0xef, 0x11, 0x3e,
  0xb2, 0x1a, 0x75, 0xbe, 0xdd, 0x22, 0x71, 0xbe, 0x04, 0x72, 0x93, 0xbe,
  0xdd, 0x97, 0x0e, 0x3e, 0x06, 0x0d, 0x7f, 0xbe, 0x42, 0x8f, 0x06, 0x3e,
  0x28, 0xb4, 0x9d, 0xbe, 0xbe, 0xfd, 0x99, 0xbe, 0xad, 0x86, 0x9a, 0xbd,
  0x20, 0x47, 0x32, 0xbe, 0x82, 0xc7, 0xd3, 0x3d, 0x57, 0x88, 0x91, 0xbd,
  0xee, 0x80, 0x8a, 0xbd, 0x7e, 0x7c, 0x48, 0xbe, 0xe2, 0xac, 0x56, 0xbe,
  0xab, 0xf4, 0x2d, 0x3e, 0xfe, 0xe9, 0x04, 0x3e, 0x24, 0x9c, 0x51, 0x3c,
  0xd1, 0x1b, 0xee, 0xbd, 0x46, 0xf5, 0xfa, 0xbd, 0x2e, 0x8f, 0x01, 0xbe,
  0x03, 0xe2, 0x90, 0xbd, 0xc6, 0x8c, 0x70, 0xbe, 0x8d, 0x4a, 0x41, 0x3e,
  0x3b, 0x03, 0x8d, 0xbe, 0x12, 0xed, 0x5f, 0x3e, 0xf8, 0xde, 0x88, 0xbe,
  0x2d, 0x48, 0x2b, 0x3d, 0x5a, 0xe7, 0x9b, 0xbd, 0xe3, 0xdf, 0x7b, 0xbe,
  0x1f, 0x50, 0x36, 0xbd, 0xfe, 0x5c, 0xe2, 0x3d, 0x5c, 0x0b, 0x51, 0x3e,
  0x92, 0x6b, 0xc4, 0x3d, 0xd9, 0x95, 0x3a, 0x3e, 0x05, 0x7e, 0x13, 0xbe,
  0x3e, 0x9a, 0x9e, 0xbd, 0xbb, 0x13, 0xb1, 0xbc, 0x92, 0xe8, 0x5f, 0x3e,
  0xf1, 0x37, 0x85, 0x3e, 0x54, 0xdf, 0x44, 0x3d, 0xf8, 0x02, 0xb7, 0x3e,
  0xf6, 0x14, 0xaf, 0x3e, 0xcf, 0xd3, 0xd8, 0x3d, 0x2f, 0x8c, 0x85, 0x3e,
  0x14, 0x90, 0x52, 0x3e, 0x10, 0xfe, 0x7a, 0x3e, 0x0b, 0x3f, 0x94, 0x3e,
  0x03, 0x0c, 0x13, 0xbe, 0xf0, 0xed, 0x22, 0x3f, 0xec, 0x9f, 0xde, 0x3c,
  0xe0, 0xaa, 0xf1, 0xbe, 0xa8, 0xc2, 0x04, 0xbe, 0x70, 0xa2, 0x76, 0xbe,
  0x18, 0xfb, 0x1e, 0x3e, 0xf5, 0x8e, 0x80, 0xbb, 0x21, 0x70, 0x51, 0xbd,
  0xff, 0x3d, 0x3c, 0x3e, 0xcd, 0xd0, 0x1c, 0x3e, 0xfd, 0xa1, 0x10, 0xbc,
  0x73, 0xeb, 0x04, 0x3d, 0x92, 0x0f, 0xe6, 0xbd, 0x44, 0xbf, 0xd5, 0x3e,
  0xc2, 0x97, 0x29, 0x3e, 0xc7, 0xc6, 0x4d, 0x3e, 0x48, 0x16, 0x04, 0x3e,
  0x3b, 0x8c, 0xfb, 0xbd, 0xc6, 0x63, 0x32, 0xbe, 0x4e, 0x4e, 0xfe, 0x3d,
  0x5c, 0x7a, 0x6c, 0x3e, 0x00, 0xbe, 0x1f, 0xbe, 0xaf, 0xf1, 0xc2, 0xbc,
  0xca, 0x9d, 0x0a, 0xbd, 0x47, 0xe1, 0x09, 0x3e, 0x03, 0x61, 0x33, 0xbe,
  0xbe, 0x39, 0xb6, 0x3d, 0x93, 0x82, 0xd3, 0xbc, 0x5c, 0x2a, 0xff, 0xbc,
  0x14, 0xff, 0x56, 0x3e, 0x11, 0xe3, 0xdc, 0x3d, 0xfd, 0xc5, 0xb0, 0x3d,
  0x2e, 0x7d, 0xff, 0xbd, 0xc3, 0x92, 0xbd, 0x3d, 0xf5, 0x8f, 0xa5, 0x3d,
  0xde, 0xcc, 0x21, 0x3d, 0xcd, 0x0e, 0xb4, 0xbc, 0xc6, 0xe9, 0x4a, 0x3e,
  0x04, 0x14, 0xcb, 0xbd, 0xc1, 0x35, 0x02, 0x3c, 0xc2, 0xf7, 0x87, 0xbd,
  0x7d, 0xe1, 0x04, 0x3d, 0xfd, 0xed, 0x45, 0x3e, 0x27, 0xa4, 0x08, 0xbe,
  0xe2, 0x56, 0x43, 0xbe, 0xd1, 0x2e, 0x31, 0xbe, 0xfa, 0xbc, 0x0b, 0x3e,
  0x88, 0x8f, 0x9a, 0xbe, 0x6d, 0x04, 0x79, 0xbe, 0x3f, 0x0a, 0x1f, 0xbe,
  0x48, 0xaa, 0x5a, 0x3d, 0x92, 0x2a, 0xbc, 0xbc, 0x75, 0xaf, 0xc9, 0x3d,
  0x8d, 0x69, 0x76, 0xbe, 0xc6, 0xb6, 0x30, 0x3e, 0x18, 0x4b, 0xcf, 0xbe,
  0x15, 0x5f, 0x75, 0xbe, 0x7a, 0x70, 0x9f, 0x3d, 0x99, 0x05, 0x6e, 0xbe,
  0x29, 0x9a, 0x6d, 0x3e, 0x03, 0x35, 0x2c, 0x3e, 0xe2, 0xd0, 0x5a, 0xbe,
  0x7d, 0xe4, 0x60, 0xbe, 0x20, 0x9e, 0x50, 0xbc, 0xe8, 0x12, 0x48, 0x3e,
  0xd5, 0x46, 0xb3, 0xbd, 0x88, 0xa9, 0xcb, 0xbd, 0x86, 0x13, 0x12, 0x3d,
  0x26, 0x88, 0xf7, 0xbd, 0x16, 0x72, 0x11, 0x3e, 0x79, 0x26, 0x6b, 0x3e,
  0xaa, 0xa0, 0x66, 0xbe, 0xf6, 0x54, 0x0a, 0xbe, 0x94, 0xc3, 0x83, 0x3e,
  0xab, 0xcb, 0xf3, 0xbc, 0x93, 0x71, 0x05, 0xbc, 0xfb, 0x7f, 0x89, 0xbd,
  0xc9, 0x10, 0x17, 0x3d, 0x9b, 0x7a, 0x64, 0x3d, 0xbc, 0x65, 0xa4, 0x3d,
  0x14, 0xfc, 0xf6, 0x3a, 0xc5, 0x95, 0xbe, 0xbd, 0xdd, 0xb3, 0x73, 0x3d,
  0x37, 0x08, 0x6c, 0x3e, 0xa5, 0x1c, 0xce, 0xbb, 0x17, 0x38, 0x1d, 0x3e,
  0xb5, 0x70, 0x10, 0xbd, 0xc3, 0x89, 0x50, 0x3e, 0x1f, 0xed, 0x53, 0xbe,
  0x8c, 0xf5, 0x86, 0xbd, 0x90, 0xd9, 0xd9, 0xbc, 0x56, 0x80, 0x35, 0xbe,
  0x40, 0x7e, 0x65, 0xbe, 0xfe, 0x97, 0xac, 0xbd, 0x97, 0xc8, 0x4a, 0x3e,
  0xc7, 0xff, 0x9f, 0xbb, 0x18, 0xe2, 0xfa, 0xbd, 0x22, 0x26, 0xfa, 0xbd,
  0x14, 0xb8, 0x07, 0x3e, 0x11, 0x49, 0x81, 0xbd, 0x60, 0xa6, 0x4c, 0xbe,
  0x7e, 0xbc, 0xf9, 0xbd, 0x2a, 0x33, 0x24, 0xbe, 0xdf, 0x37, 0x81, 0xbd,
  0xa4, 0xfc, 0x4e, 0x3e, 0x17, 0x5b, 0x9c, 0xbc, 0xba, 0xbe, 0x42, 0xbe,
  0x7a, 0xc0, 0x38, 0xbe, 0x9a, 0xb7, 0xe7, 0x3d, 0xd6, 0xa0, 0x4b, 0x3d,
  0x54, 0x0c, 0x21, 0x3e, 0xac, 0x5b, 0x07, 0x3c, 0x59, 0x5b, 0x3d, 0xbe,
  0xeb, 0x3f, 0x15, 0x3e, 0xfd, 0x86, 0x97, 0xbe, 0x80, 0x8d, 0xfc, 0x3c,
  0xf6, 0x84, 0x83, 0x3d, 0xdd, 0xd1, 0x52, 0xbd, 0x89, 0xa7, 0xfc, 0xbd,
  0xfa, 0xe3, 0x0a, 0xbd, 0x4d, 0xd1, 0x4d, 0xbe, 0xc3, 0x90, 0x27, 0xbe,
  0xd5, 0x4b, 0x47, 0xbd, 0xd1, 0xa7, 0xb0, 0xbd, 0xb0, 0xc0, 0x07, 0xbe,
  0x0b, 0xcf, 0x69, 0x3e, 0xe2, 0x63, 0xc6, 0xbc, 0x4f, 0x31, 0xd7, 0xbd,
  0xcc, 0x29, 0x64, 0xbd, 0x83, 0xa3, 0x0e, 0x3e, 0x18, 0xd7, 0xaa, 0xbe,
  0xf2, 0x9c, 0x56, 0xbd, 0x09, 0x31, 0x19, 0xbe, 0xdf, 0x5d, 0xda, 0x3d,
  0x8c, 0x73, 0x1a, 0x3d, 0xa8, 0x15, 0x70, 0xbe, 0xa8, 0xba, 0x07, 0x3e,
  0x83, 0x13, 0xbb, 0xbc, 0x35, 0x40, 0x2f, 0xbe, 0x21, 0x17, 0x74, 0xbc,
  0xaa, 0x73, 0x96, 0xbe, 0xde, 0x97, 0x30, 0x3d, 0x87, 0xd9, 0x4c, 0xbe,
  0x5a, 0x29, 0x11, 0x3e, 0x78, 0xb1, 0x89, 0xb9, 0xf7, 0x47, 0x85, 0xbe,
  0xc5, 0xc4, 0xa9, 0xbd, 0x51, 0x07, 0x1f, 0x3c, 0xb4, 0x80, 0xda, 0xbe,
  0x0f, 0xbc, 0x88, 0xbe, 0x5b, 0xa3, 0xce, 0x3d, 0xa4, 0x0f, 0xf3, 0xbd,
  0xb5, 0x2a, 0x3e, 0xbd, 0x93, 0x98, 0x2b, 0xbd, 0xbb, 0xba, 0x8f, 0xbd,
  0x1b, 0x8b, 0x5d, 0x3d, 0x2b, 0xa6, 0xc1, 0x3d, 0x6a, 0x4c, 0x57, 0xbd,
  0x8f, 0xa3, 0xd1, 0x3d, 0x4d, 0x6b, 0x96, 0x3d, 0xe8, 0x68, 0x43, 0x3e,
  0xda, 0xa9, 0x35, 0x3d, 0xf4, 0xa4, 0xa9, 0xbe, 0x49, 0xf0, 0x4b, 0x3e,
  0x3c, 0x26, 0xa0, 0xbe, 0x0e, 0x00, 0xc5, 0xbd, 0x9f, 0x85, 0x2b, 0xbc,
  0xa1, 0xb1, 0x0a, 0xbe, 0xd2, 0xd9, 0xf6, 0x3d, 0x36, 0x23, 0x74, 0x3e,
  0x48, 0xe1, 0x00, 0x3d, 0x67, 0x67, 0x1f, 0xbe, 0xe1, 0x47, 0xd7, 0xbd,
  0xd4, 0x6c, 0x87, 0xbd, 0x2f, 0x51, 0x16, 0xbe, 0x10, 0xa5, 0x0b, 0xbe,
  0x11, 0x1e, 0x10, 0xbe, 0xe1, 0xc8, 0x35, 0xbe, 0xe6, 0xe5, 0xb9, 0xbd,
  0x7e, 0xa7, 0x80, 0xbd, 0xee, 0x19, 0x9f, 0xbd, 0x2a, 0xbd, 0x67, 0xbe,
  0xde, 0x51, 0xcf, 0x3d, 0x81, 0xac, 0xf6, 0xbd, 0xc4, 0x0c, 0x05, 0x3e,
  0x45, 0x6d, 0x66, 0x3e, 0xc3, 0xf2, 0xac, 0xbd, 0x08, 0x14, 0x02, 0xbe,
  0xd0, 0x67, 0x89, 0xbe, 0x7c, 0xb2, 0xa0, 0xbd, 0xb4, 0x7b, 0x25, 0x3e,
  0xdb, 0x9d, 0x5e, 0x3e, 0x3a, 0xcf, 0x4c, 0x3d, 0x36, 0xfe, 0x27, 0x3e,
  0x0a, 0xd2, 0x54, 0x3e, 0xef, 0x3d, 0x8f, 0xbe, 0x25, 0x2a, 0xbd, 0x3c,
  0x2f, 0x17, 0xa1, 0x3d, 0x34, 0x67, 0xc8, 0xbb, 0x34, 0xdb, 0xf6, 0xbd,
  0xc0, 0x81, 0xb0, 0x3d, 0x63, 0x65, 0x44, 0x3c, 0x38, 0xfe, 0xa4, 0xbe,
  0xfe, 0x65, 0x9b, 0x3d, 0x76, 0xb9, 0x8d, 0xbe, 0x5f, 0x79, 0xea, 0x3d,
  0xf5, 0x5d, 0x60, 0x3e, 0x95, 0xee, 0x83, 0xbe, 0x6d, 0x00, 0x3a, 0xbc,
  0x40, 0xfa, 0x9a, 0xbe, 0x56, 0x8d, 0x8f, 0x3e, 0x3f, 0x16, 0x26, 0x3e,
  0x02, 0xda, 0x6d, 0xbe, 0x4e, 0x03, 0xf0, 0x3c, 0xc1, 0xd1, 0x84, 0xbe,
  0xc3, 0x32, 0xb9, 0xbe, 0xfd, 0x3d, 0xf1, 0xbc, 0xd1, 0xfa, 0x43, 0x3e,
  0xde, 0x72, 0x8c, 0x3c, 0x6a, 0x17, 0x63, 0xbe, 0x14, 0x15, 0x05, 0x3e,
  0x70, 0xf4, 0xff, 0x3c, 0x97, 0x67, 0x77, 0xbe, 0x15, 0x89, 0x3e, 0xbe,
  0x22, 0xce, 0x9c, 0x3d, 0x33, 0xd3, 0xc2, 0x3d, 0x27, 0xe7, 0x7f, 0xbd,
  0x5e, 0xbe, 0x0c, 0xbe, 0x78, 0x5b, 0x95, 0xbe, 0xc7, 0x71, 0x57, 0xbe,
  0x66, 0x88, 0x71, 0xbe, 0x95, 0x98, 0xba, 0xbd, 0x7e, 0x8e, 0x56, 0x3e,
  0x9c, 0xd4, 0x02, 0x3e, 0x4f, 0x34, 0x95, 0xbe, 0xc2, 0x01, 0x38, 0x3e,
  0x6f, 0x6c, 0xca, 0xbd, 0x4f, 0xab, 0x5c, 0xbc, 0x40, 0x4f, 0x8a, 0xbe,
  0x92, 0x79, 0x89, 0xbe, 0x72, 0x41, 0xa7, 0x3d, 0x87, 0x21, 0x36, 0x3e,
  0xaa, 0xd9, 0xd0, 0x3d, 0xc7, 0x7c, 0x23, 0xbe, 0xfa, 0x4e, 0xde, 0xbd,
  0xc1, 0x7a, 0x0b, 0x3e, 0x27, 0xad, 0x8a, 0xbd, 0x45, 0xcf, 0xf8, 0xbd,
  0xcb, 0xaf, 0xc1, 0xbc, 0xc4, 0xbe, 0x83, 0xbc, 0xe0, 0x36, 0x8e, 0xbd,
  0x8a, 0xb8, 0x95, 0xbe, 0x3d, 0x00, 0x8a, 0xbd, 0xda, 0xc1, 0x3c, 0xbe,
  0x9d, 0x7b, 0x10, 0x3e, 0x81, 0xf9, 0x11, 0xbd, 0x88, 0xba, 0x5e, 0xbe,
  0xe9, 0x15, 0xa2, 0x3d, 0xac, 0xb3, 0x6b, 0xbe, 0xbe, 0x5e, 0x8f, 0x3d,
  0x4b, 0xc9, 0x4d, 0x3c, 0x83, 0x52, 0xa7, 0xbe, 0x60, 0xef, 0xcf, 0x3d,
  0x2f, 0xb5, 0xe3, 0xbd, 0x0a, 0x8e, 0x21, 0x3e, 0x60, 0x99, 0x8a, 0x3d,
  0x2c, 0x38, 0xb9, 0xbe, 0x60, 0xe6, 0xc3, 0xbd, 0xf0, 0x0b, 0x8f, 0xbe,
  0x6d, 0xd7, 0xb4, 0x3d, 0xce, 0xe8, 0xc5, 0x3d, 0x00, 0x61, 0x07, 0xbd,
  0x94, 0xe8, 0x63, 0xbe, 0xda, 0x3f, 0xc4, 0xbd, 0x0e, 0xa6, 0xbe, 0xbd,
  0xb0, 0xe1, 0x11, 0xbe, 0x1a, 0x99, 0xd5, 0x3b, 0x5f, 0x4b, 0x87, 0xbe,
  0xe1, 0x28, 0x84, 0xbe, 0x7a, 0x69, 0xba, 0xbe, 0xff, 0xb6, 0xde, 0xbd,
  0xb2, 0x09, 0xc3, 0x3d, 0xde, 0x95, 0xc8, 0x3d, 0x0a, 0x25, 0x25, 0x3e,
  0x79, 0x36, 0x17, 0xbe, 0x89, 0x1d, 0xd7, 0xbd, 0xf1, 0xec, 0x14, 0xbe,
  0x44, 0xab, 0x28, 0x3d, 0xb3, 0xf6, 0x41, 0xbe, 0x28, 0x74, 0xe5, 0xbd,
  0x8d, 0x9b, 0x3e, 0x3c, 0x1b, 0x37, 0x9d, 0x3c, 0xa3, 0xd1, 0xb4, 0xbd,
  0xae, 0x22, 0xaf, 0x3d, 0x73, 0x78, 0xa3, 0xbc, 0x39, 0x4a, 0x73, 0xbd,
  0x70, 0x40, 0x7a, 0xbe, 0x36, 0x8b, 0x95, 0xbe, 0x07, 0x7f, 0x26, 0x3e,
  0xe7, 0xd4, 0xdd, 0xbd, 0x62, 0x1b, 0x61, 0xbe, 0x1b, 0x83, 0x01, 0xbe,
  0x8e, 0x8b, 0xf4, 0xbd, 0x3b, 0x8f, 0xcc, 0x3d, 0xa7, 0x03, 0x7e, 0x3e,
  0x31, 0x67, 0xc9, 0xbe, 0x23, 0x99, 0xf6, 0x3c, 0xe8, 0x60, 0xa8, 0xbe,
  0xe5, 0x90, 0x3a, 0xbe, 0xc7, 0xf1, 0x9e, 0xbe, 0xd9, 0xf5, 0x8d, 0xbe,
  0x30, 0xd0, 0x06, 0xbe, 0x46, 0x6a, 0x26, 0xbe, 0x8e, 0x90, 0x6b, 0xbe,
  0x82, 0x09, 0x0d, 0xbe, 0x82, 0xc7, 0xe5, 0xbd, 0xa1, 0x70, 0x20, 0xbd,
  0xae, 0x7b, 0x7b, 0x3c, 0x83, 0x29, 0xbd, 0xbc, 0xa6, 0x04, 0x22, 0xbd,
  0x80, 0x54, 0x8d, 0x3e, 0x4d, 0xf5, 0x14, 0xbe, 0x9a, 0x31, 0x9a, 0xbd,
  0x97, 0xaf, 0xa5, 0xbc, 0x8a, 0xa4, 0x5e, 0xbd, 0x64, 0xe9, 0xe6, 0xbc,
  0x0c, 0xb1, 0x9f, 0xbd, 0x68, 0x1f, 0x26, 0x3c, 0xd5, 0x50, 0x66, 0xbd,
  0xa2, 0x00, 0xb9, 0x3c, 0x19, 0xd2, 0xed, 0xbd, 0x50, 0x68, 0x30, 0xbe,
  0x38, 0x7d, 0xe8, 0xbd, 0xe0, 0x32, 0x24, 0xbe, 0x35, 0xc4, 0x7c, 0xbe,
  0xdc, 0x21, 0x2d, 0x3e, 0x83, 0xb9, 0xaa, 0x3d, 0x6c, 0x25, 0xe7, 0xbd,
  0x8f, 0x77, 0x2c, 0x3f, 0xf8, 0x21, 0x48, 0xbe, 0x1c, 0xd0, 0xd2, 0x3d,
  0xba, 0x64, 0x9b, 0xbd, 0x2c, 0x4c, 0x28, 0xbe, 0xd5, 0x42, 0x08, 0x3d,
  0xa8, 0xb7, 0xf5, 0xbd, 0x40, 0xbe, 0xa4, 0x3e, 0x69, 0xe9, 0xdb, 0xbc,
  0xe8, 0xb8, 0xae, 0x3d, 0xca, 0x97, 0x5a, 0x3d, 0x23, 0x7a, 0x1c, 0xbd,
  0x71, 0xd7, 0x8a, 0xbe, 0xf1, 0xa4, 0xa1, 0xbd, 0x38, 0x49, 0x60, 0x3e,
  0x5d, 0xea, 0x2b, 0x3e, 0x64, 0x2e, 0xbd, 0xbb, 0x51, 0x67, 0x9d, 0xbd,
  0xc9, 0xac, 0xef, 0xbd, 0x27, 0x6f, 0x12, 0xbe, 0xc6, 0xf4, 0x36, 0x3e,
  0x64, 0xcc, 0xc3, 0xbd, 0xbf, 0x42, 0x8f, 0x3e, 0x69, 0xdf, 0x30, 0xbe,
  0x59, 0xee, 0x80, 0xbc, 0x5d, 0x9f, 0x17, 0x3e, 0xe3, 0x79, 0xdd, 0xbc,
  0xa5, 0xa2, 0x9d, 0x3c, 0xc7, 0xb2, 0x24, 0x3e, 0xd4, 0x71, 0x46, 0xbe,
  0x43, 0x06, 0x3d, 0x3d, 0x99, 0x69, 0x35, 0x3e, 0x94, 0x82, 0xed, 0x3d,
  0x10, 0x82, 0x11, 0xbe, 0x00, 0x45, 0x8b, 0x3d, 0x88, 0x63, 0x3f, 0xbe,
  0x71, 0xa3, 0x00, 0xbe, 0x82, 0x7b, 0xef, 0xbb, 0xe2, 0x2c, 0x3e, 0xbd,
  0x38, 0xde, 0x3a, 0x3d, 0xe6, 0x27, 0x10, 0x3e, 0x26, 0xd4, 0x43, 0xbd,
  0xef, 0x1d, 0x39, 0xbd, 0x4e, 0xc1, 0x85, 0x3d, 0x96, 0x20, 0x89, 0xbe,
  0x2f, 0x27, 0x92, 0x3d, 0x70, 0xd0, 0x57, 0xbe, 0x99, 0xe7, 0x14, 0xbe,
  0xe5, 0x8c, 0x3d, 0xbe, 0x47, 0xa2, 0x71, 0xbc, 0x18, 0x5c, 0xd5, 0xbd,
  0x06, 0x34, 0xca, 0xbd, 0xba, 0xb1, 0x5d, 0xbe, 0x67, 0x33, 0x10, 0xbe,
  0x48, 0x62, 0x22, 0x3e, 0xc6, 0xc9, 0x4b, 0xbc, 0x93, 0x9e, 0x24, 0xbe,
  0x58, 0x50, 0xda, 0x3d, 0x0e, 0x0e, 0x3a, 0xbe, 0x11, 0xfa, 0x0f, 0x3e,
  0x6c, 0x88, 0x36, 0xbe, 0xcf, 0x3c, 0x4b, 0xbe, 0xfe, 0xcf, 0x1d, 0xbc,
  0x8d, 0xcf, 0xe7, 0x3c, 0xc8, 0x5c, 0x60, 0xbe, 0x2d, 0x4b, 0xfe, 0x3c,
  0xe8, 0x01, 0x23, 0x3e, 0x12, 0x23, 0x84, 0xbd, 0x86, 0x80, 0xed, 0xbd,
  0xe9, 0xbf, 0x2c, 0xbe, 0xed, 0xa2, 0xf6, 0x3b, 0x1a, 0x1e, 0xb1, 0x3d,
  0xbb, 0xff, 0x95, 0xbe, 0x10, 0x20, 0x78, 0xbe, 0xb6, 0x9a, 0xdf, 0xbd,
  0xe5, 0x4e, 0xe2, 0xbd, 0x67, 0x3c, 0xab, 0xbd, 0xbd, 0x1f, 0x37, 0xbe,
  0xe2, 0x3a, 0xf5, 0x3d, 0x45, 0x13, 0x71, 0xbd, 0x29, 0x58, 0x50, 0x3e,
  0xaf, 0x6a, 0x33, 0x3c, 0x89, 0xdd, 0x8f, 0xbe, 0x7b, 0x2c, 0xfd, 0x3d,
  0x52, 0x07, 0x76, 0xbe, 0x61, 0x23, 0x45, 0xbe, 0x89, 0x27, 0xf8, 0x3d,
  0x9b, 0x65, 0x6e, 0x3d, 0x1d, 0xf9, 0x25, 0xbe, 0x12, 0xdc, 0xb7, 0xbd,
  0x88, 0x7f, 0x5f, 0x3e, 0x15, 0x44, 0xb5, 0x3c, 0x9e, 0xf9, 0x39, 0xbe,
  0x09, 0x53, 0x44, 0x3d, 0x3f, 0xed, 0x4b, 0xbe, 0xd3, 0x93, 0x9f, 0xbd,
  0x14, 0x08, 0x10, 0xbd, 0x88, 0x39, 0x70, 0xbd, 0xc6, 0xeb, 0x71, 0x3d,
  0xd4, 0xc3, 0x27, 0x3e, 0xf7, 0x66, 0xbc, 0x3d, 0x88, 0x97, 0x25, 0x3e,
  0x78, 0x44, 0x3b, 0x3e, 0xce, 0xa5, 0xe0, 0x3e, 0x0b, 0xf0, 0xc7, 0xbd,
  0xcf, 0x95, 0x72, 0x3d, 0x11, 0xb5, 0x39, 0x3d, 0x31, 0x48, 0x6b, 0x3e,
  0x40, 0x18, 0xd5, 0x3e, 0x65, 0xee, 0x6a, 0x3e, 0x2c, 0xd9, 0xdf, 0x3e,
  0x5c, 0xa2, 0xe4, 0x3d, 0x56, 0xa4, 0x30, 0xbf, 0x7b, 0xcd, 0x08, 0x3e,
  0x30, 0xbf, 0x17, 0xbe, 0xb8, 0xba, 0x10, 0xbe, 0x58, 0x34, 0x2d, 0x3e,
  0x08, 0xbf, 0x44, 0xbc, 0x1f, 0xcb, 0x39, 0xbd, 0xa9, 0x9a, 0x6e, 0x3e,
  0xbe, 0x22, 0x0b, 0x3c, 0x2a, 0x48, 0x1f, 0x3d, 0x6d, 0x11, 0x29, 0x3e,
  0xf4, 0xeb, 0x34, 0x3f, 0xe5, 0xe4, 0x9f, 0x3c, 0x1e, 0xc8, 0x1a, 0xbe,
  0x66, 0x77, 0x25, 0xbe, 0xf2, 0x98, 0x5b, 0x3e, 0x98, 0xcf, 0xe1, 0xbe,
  0xab, 0xc8, 0x23, 0xbe, 0x3d, 0x70, 0xf9, 0xbd, 0x54, 0x88, 0x16, 0xbd,
  0x91, 0xd3, 0x0a, 0x3e, 0xa1, 0x78, 0x75, 0x3d, 0x9d, 0x36, 0x8b, 0xbc,
  0xca, 0x86, 0x76, 0xbe, 0xcc, 0xa2, 0x2b, 0x3d, 0xeb, 0x12, 0x22, 0xbe,
  0x61, 0x62, 0x9a, 0x3c, 0xdf, 0xe3, 0xf5, 0x3d, 0x71, 0x15, 0xe9, 0xbc,
  0x4d, 0x43, 0x94, 0x3e, 0x96, 0x1b, 0x0c, 0xbc, 0x29, 0x4d, 0x80, 0xbb,
  0x6c, 0x79, 0x2b, 0x3e, 0x41, 0xdf, 0x63, 0x3e, 0x95, 0x14, 0xcf, 0xbb,
  0x32, 0xa2, 0xf1, 0xbd, 0xf9, 0x78, 0xcc, 0xbc, 0x37, 0x9e, 0x88, 0xbd,
  0x96, 0xcd, 0x45, 0xbc, 0xaf, 0xf4, 0x6d, 0x3c, 0x65, 0x68, 0xea, 0x3b,
  0xf3, 0x1d, 0x39, 0x3d, 0x72, 0x11, 0x25, 0xbd, 0xf3, 0x72, 0xdb, 0xbd,
  0x47, 0xd0, 0x45, 0xbe, 0xc9, 0xe2, 0x7b, 0xbe, 0xa2, 0x35, 0x3c, 0xbe,
  0x3e, 0x20, 0xa2, 0x3d, 0x84, 0xee, 0x11, 0xbe, 0x9f, 0x68, 0x36, 0x3e,
  0x7f, 0x31, 0x9b, 0x3e, 0xb7, 0xd4, 0x88, 0xbe, 0x91, 0x9a, 0x60, 0xbe,
  0x06, 0x7f, 0x35, 0xbe, 0x46, 0x6e, 0xa9, 0x3e, 0x31, 0xca, 0x79, 0xbe,
  0x58, 0x7a, 0x7c, 0x3e, 0xe2, 0xef, 0xfc, 0xbd, 0x2f, 0x7e, 0x74, 0xbe,
  0x30, 0xa6, 0x13, 0xbe, 0xe9, 0x17, 0x10, 0xbd, 0xa2, 0x60, 0x17, 0xbe,
  0xdc, 0x14, 0x26, 0x3e, 0xd4, 0x02, 0x18, 0x3e, 0x05, 0x0d, 0x97, 0xbd,
  0xaf, 0x12, 0x80, 0x3d, 0x89, 0x0e, 0x52, 0xbe, 0xfa, 0x31, 0xa2, 0xbd,
  0x10, 0x2f, 0xcc, 0xbd, 0xff, 0x0e, 0x98, 0xbd, 0x55, 0xe0, 0x76, 0xbe,
  0x02, 0xf5, 0xa1, 0xbe, 0xca, 0x14, 0xac, 0xbd, 0xe6, 0xef, 0x83, 0xbe,
  0xb7, 0x5c, 0x37, 0x3e, 0x01, 0x47, 0x8e, 0xbe, 0x25, 0x67, 0x5b, 0x3e,
  0xb7, 0x35, 0xc4, 0xbd, 0x98, 0x54, 0x2c, 0x3e, 0x0f, 0x17, 0x85, 0xbe,
  0xff, 0x62, 0xab, 0xbc, 0x02, 0x75, 0x70, 0xbe, 0x74, 0xff, 0xf4, 0xbd,
  0x47, 0x95, 0x1c, 0xbd, 0xd7, 0xb6, 0x98, 0x3d, 0x2e, 0xa7, 0x29, 0xbe,
  0xfe, 0xdc, 0xcf, 0xbd, 0xc9, 0x42, 0x73, 0xbe, 0xb4, 0x7d, 0x0b, 0xbe,
  0x4c, 0x48, 0x72, 0x3e, 0x79, 0x1b, 0x91, 0xbe, 0x9b, 0x7d, 0x82, 0x3d,
  0x08, 0x37, 0x11, 0x3e, 0x0b, 0x7d, 0x8c, 0x3e, 0xbd, 0x5a, 0x14, 0xbe,
  0x14, 0x88, 0x72, 0xbd, 0x22, 0x75, 0x56, 0xbe, 0xfa, 0x39, 0x85, 0xbd,
  0x2c, 0xb1, 0xae, 0xba, 0x3e, 0x7a, 0xa3, 0x3d, 0xf2, 0xde, 0x3e, 0xbe,
  0xc6, 0x55, 0x16, 0xbe, 0xe5, 0x15, 0x80, 0xbe, 0x84, 0x8a, 0x4f, 0xbe,
  0x3e, 0x15, 0x8a, 0x3e, 0xcd, 0xea, 0x1d, 0x3d, 0x23, 0x1e, 0x7c, 0x3c,
  0x69, 0x60, 0x93, 0xbe, 0xb9, 0xab, 0x43, 0x3e, 0x67, 0x33, 0x0b, 0x3e,
  0xf9, 0x6e, 0x83, 0xbe, 0x09, 0xfe, 0xfb, 0x3b, 0x22, 0x5d, 0x46, 0xbe,
  0xb1, 0xe5, 0x41, 0xbe, 0x91, 0x36, 0x7d, 0xbd, 0xe1, 0xfa, 0x99, 0xbe,
  0x1f, 0xc8, 0x17, 0xbe, 0x3e, 0x6c, 0x5c, 0xbe, 0x80, 0x26, 0xf2, 0xbc,
  0x0f, 0x29, 0x8d, 0x3e, 0x67, 0x95, 0x8a, 0x3e, 0xd3, 0xb4, 0x44, 0x3e,
  0x77, 0xb2, 0xe3, 0xbc, 0x4c, 0x61, 0xcb, 0xbd, 0x68, 0xca, 0x14, 0xbe,
  0xe7, 0x1d, 0x7c, 0x3d, 0x90, 0x25, 0x41, 0x3d, 0x13, 0xa6, 0xd7, 0x3d,
  0xb6, 0x2f, 0xe5, 0x3d, 0xe4, 0x39, 0x46, 0xbe, 0x34, 0xcf, 0x84, 0x3d,
  0x63, 0x32, 0x4a, 0xbe, 0xfd, 0x87, 0xca, 0xbe, 0x92, 0xa2, 0x85, 0xbd,
  0xd2, 0x60, 0xfb, 0x3d, 0x2f, 0x06, 0x32, 0x3e, 0x25, 0xf4, 0x0c, 0xbe,
  0x87, 0xea, 0x4c, 0xbe, 0xe5, 0x2f, 0xe1, 0xbd, 0x12, 0x10, 0xb9, 0xbd,
  0x45, 0xfb, 0x77, 0xbe, 0x5f, 0x32, 0x6d, 0x3e, 0x46, 0x0f, 0x94, 0xbd,
  0x99, 0x86, 0x9b, 0x3e, 0x27, 0x9d, 0x93, 0xbe, 0xf2, 0x88, 0x09, 0x3e,
  0x42, 0x03, 0xc0, 0x3d, 0x25, 0x64, 0xe6, 0xbd, 0x79, 0x23, 0x4c, 0xbe,
  0x89, 0xa1, 0x5c, 0xbb, 0xd1, 0xbc, 0x8a, 0xbe, 0xee, 0x8d, 0xcb, 0xbc,
  0x0b, 0xcc, 0x8e, 0x3d, 0x05, 0x13, 0x2b, 0x3e, 0xb7, 0xbe, 0x26, 0xbe,
  0x98, 0x6b, 0xe6, 0xbd, 0x80, 0xbf, 0x71, 0x3e, 0x1c, 0xe5, 0xb9, 0xbd,
  0xcc, 0x4a, 0x1f, 0xbd, 0x40, 0xa2, 0x38, 0x3d, 0xd3, 0x75, 0x57, 0xbe,
  0x36, 0xd8, 0x6b, 0x3d, 0x99, 0x15, 0x3d, 0xbd, 0x03, 0x83, 0x3a, 0xbd,
  0x25, 0xaf, 0x1a, 0xbe, 0xf0, 0xd5, 0x8a, 0x3e, 0xe2, 0x8e, 0x85, 0x3e,
  0x2b, 0xa8, 0xa8, 0xbd, 0x30, 0x2a, 0x15, 0xbe, 0xe3, 0x0b, 0x49, 0x3d,
  0x59, 0x29, 0x93, 0xbe, 0x9d, 0x17, 0x7e, 0x3e, 0x29, 0x13, 0x4c, 0xbe,
  0xc6, 0xf9, 0xaf, 0xbd, 0xb2, 0x69, 0x8e, 0x3d, 0x5d, 0x0d, 0x19, 0x3e,
  0xf2, 0xd3, 0xae, 0xbe, 0x1c, 0xe6, 0x1f, 0xbc, 0xfe, 0x6f, 0x06, 0x3e,
  0x7d, 0xfc, 0xcc, 0x3d, 0x69, 0x0a, 0x2f, 0xbe, 0xe8, 0x0c, 0x1a, 0xbe,
  0x1d, 0x4d, 0x25, 0x3e, 0x29, 0x76, 0xa4, 0x3e, 0x77, 0x80, 0x4c, 0x3d,
  0xc5, 0x88, 0x55, 0x3b, 0x5b, 0x00, 0x35, 0x3d, 0xca, 0x86, 0xdc, 0x3e,
  0x22, 0xde, 0x21, 0x3f, 0x52, 0xe8, 0x8d, 0xbe, 0x78, 0xdf, 0xcb, 0x3e,
  0xa7, 0x10, 0xc2, 0x3d, 0x9b, 0x06, 0xee, 0xbe, 0x87, 0x2d, 0x0f, 0x3e,
  0x5c, 0x4a, 0xdf, 0xbc, 0x8b, 0x73, 0x3b, 0x3e, 0xc6, 0xe9, 0x96, 0x3e,
  0x20, 0x44, 0x0b, 0x3e, 0xa3, 0x1d, 0x07, 0xbe, 0x9f, 0xea, 0x12, 0x3e,
  0xb9, 0x30, 0x30, 0x3e, 0xb6, 0xf0, 0xe4, 0xbc, 0x2b, 0x7e, 0x29, 0x3e,
  0x7e, 0xfc, 0x3b, 0x3f, 0xf5, 0xa9, 0x23, 0xbc, 0x42, 0x45, 0x66, 0x3d,
  0x6e, 0x5e, 0xc5, 0xbd, 0x44, 0x33, 0x35, 0x3d, 0x91, 0xc5, 0x41, 0xbe,
  0x3a, 0xbb, 0x48, 0xbe, 0x31, 0x83, 0x99, 0xbc, 0x22, 0xc4, 0x8e, 0xbd,
  0xc8, 0x69, 0x7c, 0xbe, 0x8b, 0xdd, 0x5c, 0x3d, 0x43, 0x70, 0x9d, 0x3d,
  0xec, 0x4f, 0x3b, 0x3d, 0x0f, 0x8b, 0x9f, 0x3d, 0x83, 0xf2, 0x14, 0x3e,
  0x35, 0x95, 0xdb, 0xbd, 0xad, 0x20, 0x0d, 0x3e, 0x51, 0x68, 0x91, 0xbe,
  0x49, 0x76, 0x29, 0x3c, 0xfe, 0x85, 0xa8, 0xbe, 0x6f, 0xc6, 0xb0, 0xbc,
  0x75, 0x41, 0xc0, 0x3e, 0x82, 0xfd, 0x2c, 0xbe, 0x6d, 0xeb, 0x93, 0x3d,
  0xfb, 0x3e, 0xdd, 0xbd, 0x38, 0xaa, 0x0f, 0xbe, 0x12, 0xf7, 0xd4, 0x3c,
  0xe4, 0x11, 0x6a, 0xbe, 0x4c, 0x18, 0xaa, 0xbe, 0xc6, 0x22, 0xc7, 0xbd,
  0x86, 0x0a, 0x7d, 0x3c, 0x68, 0x5b, 0xf0, 0xbd, 0x5c, 0xed, 0x50, 0x3d,
  0xa7, 0x72, 0xc7, 0xbd, 0x66, 0xb0, 0x18, 0xbc, 0xc9, 0xda, 0x6e, 0xbe,
  0xc7, 0x1f, 0x9c, 0x3d, 0x68, 0xbf, 0x04, 0xbe, 0x74, 0xd8, 0x73, 0x3e,
  0x7c, 0xf0, 0x36, 0x3d, 0x0e, 0xfa, 0xa3, 0xbd, 0x68, 0x8b, 0x1d, 0x3e,
  0x4f, 0x1f, 0x81, 0x3c, 0xf7, 0xa2, 0x57, 0x3e, 0x1d, 0xb7, 0x32, 0x3e,
  0x64, 0x39, 0x0b, 0xbe, 0x24, 0xc7, 0x14, 0xbe, 0xb6, 0x68, 0x1b, 0xbd,
  0xfa, 0x18, 0x8b, 0x3d, 0xb5, 0x7f, 0xb8, 0x3b, 0xdd, 0xa7, 0xd9, 0x3c,
  0xcd, 0x3a, 0xd3, 0x3e, 0xc6, 0x8e, 0x18, 0xbe, 0x81, 0x10, 0x00, 0xbe,
  0xa1, 0xfb, 0x78, 0xbe, 0xc8, 0x40, 0x32, 0xbe, 0x85, 0xef, 0x40, 0x3d,
  0x4e, 0x9c, 0x06, 0x3e, 0x64, 0xa6, 0x5b, 0xbd, 0x86, 0x4d, 0x3f, 0xbe,
  0x28, 0x94, 0xcb, 0x3d, 0x06, 0x28, 0x8d, 0x3e, 0xea, 0xc0, 0x3d, 0xbb,
  0xa6, 0xfc, 0xd7, 0x3d, 0x3c, 0xee, 0x84, 0x3e, 0x97, 0x38, 0x74, 0x3e,
  0x80, 0x33, 0xc9, 0xbd, 0xe5, 0xac, 0xef, 0xbd, 0xf2, 0xfb, 0xe7, 0xbd,
  0xc2, 0x66, 0xbb, 0x3d, 0xb0, 0x81, 0x38, 0x3d, 0x2d, 0xd2, 0x07, 0x3c,
  0x4a, 0xc7, 0xbc, 0xbe, 0x35, 0xcd, 0x6a, 0xbe, 0xf4, 0x06, 0x61, 0xbe,
  0x1a, 0x1e, 0x11, 0x3d, 0xb9, 0xb7, 0x5d, 0xbd, 0xb0, 0xb2, 0xf6, 0x3d,
  0xec, 0xcf, 0x32, 0xbe, 0x3b, 0xbc, 0x80, 0xbe, 0x61, 0x2d, 0xa5, 0x3d,
  0xf2, 0x8d, 0x9b, 0xbe, 0xb1, 0xd3, 0xc2, 0x3e, 0x5b, 0xb8, 0xcf, 0x3d,
  0xab, 0xb8, 0x12, 0xbe, 0x21, 0x03, 0xa9, 0xbd, 0xd7, 0x12, 0x07, 0xbe,
  0xf2, 0xc4, 0xe6, 0xbd, 0xff, 0x4e, 0x06, 0xbd, 0xfb, 0x19, 0x62, 0x3c,
  0x2e, 0x08, 0x24, 0xbd, 0xe5, 0x3f, 0x27, 0xbe, 0x84, 0xb2, 0x45, 0xbe,
  0xbc, 0x34, 0x4f, 0x3e, 0x84, 0xaa, 0x1d, 0x3e, 0x92, 0x7e, 0xda, 0xbd,
  0x80, 0xae, 0xbe, 0xbc, 0x64, 0x27, 0x38, 0xbe, 0x08, 0x36, 0x6b, 0x3d,
  0x1d, 0x50, 0x7a, 0x3d, 0x93, 0xe4, 0x46, 0x3e, 0xf4, 0x0c, 0xfd, 0xbd,
  0xa3, 0x03, 0xff, 0x3d, 0x8e, 0x60, 0x83, 0xbd, 0x11, 0x8a, 0x36, 0xbe,
  0x27, 0x69, 0x91, 0x3d, 0xee, 0x8f, 0x3e, 0x3d, 0xa1, 0xc9, 0x1e, 0x3e,
  0xc0, 0x4d, 0x34, 0xbb, 0x26, 0x14, 0xe2, 0x3d, 0xa4, 0x0a, 0x3a, 0x3d,
  0xb7, 0x00, 0x72, 0x3c, 0xa2, 0x91, 0xad, 0x3e, 0xe4, 0x13, 0x01, 0x3f,
  0x10, 0x76, 0xc9, 0x3d, 0xc8, 0xa5, 0x8d, 0x3e, 0x97, 0x87, 0xa1, 0xbd,
  0x64, 0x58, 0x96, 0xbe, 0x6d, 0xdd, 0xc0, 0x3c, 0x7d, 0x9e, 0x38, 0xbe,
  0xaf, 0x43, 0x53, 0x3d, 0xcf, 0xa2, 0xc0, 0x3d, 0x95, 0x90, 0x19, 0x3e,
  0xf4, 0x1e, 0xe2, 0x3d, 0x6a, 0x34, 0x8f, 0xbd, 0x14, 0x40, 0x70, 0x3e,
  0x6a, 0x1a, 0x06, 0xbe, 0xea, 0x23, 0xbb, 0x3d, 0x86, 0x39, 0xf6, 0x3e,
  0xe1, 0x27, 0x89, 0x3e, 0x09, 0xc0, 0x63, 0xbd, 0xd6, 0xcd, 0x8c, 0xba,
  0x60, 0x4c, 0xcb, 0xbd, 0x2a, 0xdd, 0x81, 0xbe, 0xf5, 0xdc, 0x46, 0x3d,
  0x0a, 0x18, 0x0d, 0x3e, 0x7e, 0x24, 0x70, 0xbd, 0xe2, 0xc2, 0x14, 0xbe,
  0x9f, 0x4a, 0x08, 0x3d, 0x9b, 0xb0, 0x37, 0xbe, 0x67, 0xaa, 0xbf, 0x3d,
  0xd9, 0x07, 0x8a, 0xbd, 0xde, 0x90, 0xfa, 0x3d, 0xdb, 0x3e, 0x02, 0xbd,
  0xb8, 0x8f, 0xf5, 0xbd, 0x74, 0xb1, 0x4f, 0xbd, 0x4a, 0xb6, 0xb7, 0x3d,
  0xb0, 0x6f, 0x8e, 0xbd, 0xe6, 0x10, 0xab, 0x3d, 0x23, 0x14, 0xc9, 0xbd,
  0x3f, 0x20, 0x00, 0xbe, 0x09, 0x67, 0x2b, 0xbe, 0x8c, 0x0c, 0x11, 0xbe,
  0x65, 0x5a, 0xc5, 0x3d, 0x97, 0x04, 0x97, 0x3d, 0x3a, 0x8e, 0x4d, 0xbe,
  0x32, 0x75, 0x70, 0xbe, 0x41, 0x28, 0xe2, 0x3c, 0x5c, 0x02, 0x71, 0xbd,
  0x9c, 0x35, 0xac, 0x3d, 0x5a, 0x52, 0x70, 0x3b, 0x7e, 0x12, 0xcc, 0xbd,
  0xcb, 0xd8, 0xbb, 0xbd, 0x8a, 0xc8, 0x50, 0xbe, 0xb3, 0x4f, 0x40, 0x3e,
  0x79, 0xb9, 0x54, 0xbe, 0x14, 0xd5, 0x3a, 0xbe, 0x00, 0xc6, 0xf5, 0x3c,
  0xa9, 0xa5, 0x3e, 0x3e, 0xd7, 0x31, 0x47, 0xbd, 0xb9, 0x59, 0xd9, 0xbe,
  0x1e, 0xef, 0x06, 0x3e, 0xa2, 0xec, 0xa1, 0x3d, 0xf1, 0x68, 0x56, 0xbe,
  0x19, 0xd5, 0x4c, 0xbd, 0xc1, 0xa9, 0xe7, 0xbc, 0x56, 0xe6, 0xca, 0xbd,
  0x33, 0x96, 0x79, 0xbe, 0x33, 0x77, 0x89, 0xbe, 0xea, 0x10, 0xd3, 0x3b,
  0xc1, 0x6d, 0x5a, 0x3e, 0x4c, 0x5e, 0x8a, 0x3d, 0x05, 0xa4, 0xee, 0xbd,
  0x10, 0x04, 0xc1, 0xbc, 0xf0, 0x53, 0xac, 0xbe, 0xe8, 0xb2, 0x0f, 0x3e,
  0x1d, 0x9c, 0x6e, 0xbd, 0x5e, 0xee, 0x2b, 0x3e, 0xce, 0x21, 0x41, 0x3e,
  0x6a, 0x3f, 0x42, 0xbe, 0x54, 0x3d, 0xc4, 0x3d, 0x61, 0x85, 0x33, 0x3e,
  0x75, 0x8f, 0x2c, 0x3d, 0xa3, 0xbe, 0x58, 0x3e, 0x3c, 0xb2, 0x2a, 0x3e,
  0x07, 0x47, 0x86, 0xbe, 0x66, 0x33, 0xd7, 0x3c, 0xd2, 0xfb, 0xcd, 0xbe,
  0xf7, 0xc8, 0x57, 0x3e, 0x1e, 0x81, 0xbe, 0xbe, 0x19, 0x6a, 0x88, 0xbe,
  0x51, 0x64, 0x67, 0xbe, 0x94, 0xc6, 0xc5, 0xbe, 0xc1, 0x2c, 0x18, 0xbe,
  0x60, 0x20, 0x21, 0xbe, 0x53, 0x01, 0x52, 0x3e, 0x90, 0xc0, 0x1b, 0x3e,
  0x36, 0xd1, 0x13, 0xbe, 0x27, 0x23, 0x19, 0x3d, 0xfc, 0xf3, 0xd0, 0x3d,
  0xab, 0x90, 0x65, 0x3e, 0xb4, 0xe4, 0xe4, 0x3c, 0x70, 0xd9, 0x04, 0xbe,
  0x27, 0x80, 0x24, 0x3e, 0xc7, 0x62, 0x27, 0x3e, 0x34, 0xed, 0x2e, 0xbe,
  0xa7, 0xd2, 0xf9, 0x3d, 0xf7, 0x07, 0x89, 0xbe, 0x38, 0x82, 0x5d, 0xbd,
  0x7e, 0xa1, 0xc1, 0x3d, 0x07, 0x16, 0x58, 0xbe, 0x43, 0x8f, 0x9f, 0x3d,
  0xd5, 0xb0, 0x67, 0xbe, 0x3c, 0x12, 0x0c, 0xbe, 0x95, 0x85, 0xd5, 0x3d,
  0x23, 0x87, 0x14, 0xbe, 0xe6, 0xf4, 0xff, 0xff, 0x04, 0x00, 0x00, 0x00,
  0x08, 0x00, 0x00, 0x00, 0xff, 0xff, 0xff, 0xff, 0x40, 0x00, 0x00, 0x00,
  0xfa, 0xf4, 0xff, 0xff, 0x04, 0x00, 0x00, 0x00, 0x08, 0x00, 0x00, 0x00,
  0xe3, 0x19, 0x20, 0x3f, 0xe5, 0x19, 0x20, 0xbf, 0x0e, 0xf5, 0xff, 0xff,
  0x04, 0x00, 0x00, 0x00, 0x40, 0x00, 0x00, 0x00, 0x62, 0x81, 0x08, 0xbd,
  0xc8, 0x00, 0x1c, 0xbe, 0xff, 0xda, 0x04, 0xbf, 0xd9, 0x4a, 0x24, 0xbe,
  0x44, 0x73, 0x9d, 0xbe, 0x6c, 0xca, 0xcf, 0xbd, 0x43, 0x3d, 0xc1, 0x3c,
  0xd5, 0xf7, 0xcb, 0x3e, 0xb3, 0x3d, 0x36, 0xbd, 0x0f, 0xa2, 0x0c, 0xbf,
  0x8f, 0xbd, 0xf6, 0xbd, 0x31, 0x1e, 0xc8, 0xbe, 0x5e, 0x03, 0x12, 0xbf,
  0xac, 0x5c, 0x34, 0xbe, 0x81, 0x22, 0x2c, 0xbf, 0xff, 0x8b, 0xc6, 0xbe,
  0x5a, 0xf5, 0xff, 0xff, 0x04, 0x00, 0x00, 0x00, 0x00, 0x08, 0x00, 0x00,
  0x7a, 0xdb, 0xa6, 0x3d, 0x40, 0x8f, 0x5b, 0x3e, 0xe5, 0xe4, 0x49, 0x3e,
  0xb6, 0x8f, 0x2f, 0x3e, 0xbc, 0xc1, 0xe1, 0xbd, 0x68, 0x0a, 0x08, 0x3e,
  0xf6, 0x61, 0x26, 0xbe, 0x64, 0x9c, 0xab, 0xbd, 0x2f, 0xf1, 0x2b, 0xbd,
  0xa4, 0xc8, 0x6d, 0xbe, 0x50, 0xda, 0xc1, 0xbd, 0x2f, 0x5c, 0x70, 0x3e,
  0x5a, 0xff, 0x79, 0xbe, 0x0c, 0x33, 0x33, 0xbe, 0x67, 0xf2, 0x55, 0x3d,
  0x89, 0x3e, 0x33, 0x3e, 0xa8, 0xe3, 0xeb, 0x3b, 0x7e, 0xa3, 0xa0, 0xbd,
  0x42, 0x02, 0x6e, 0xbe, 0x36, 0x3c, 0x2b, 0x3e, 0x36, 0x16, 0x2e, 0x3d,
  0x83, 0x74, 0x4a, 0xbe, 0x15, 0x0b, 0x0d, 0xbe, 0x61, 0x84, 0x2a, 0x3d,
  0x4a, 0x9a, 0xb2, 0xbc, 0x28, 0xf5, 0x64, 0xbe, 0x16, 0x5c, 0xcc, 0xbc,
  0x12, 0x12, 0xcb, 0xbd, 0x17, 0x89, 0x3c, 0xbe, 0x0a, 0x3a, 0x00, 0x3e,
  0xe2, 0xb9, 0xfa, 0xbd, 0x67, 0x8e, 0x99, 0x3c, 0xf4, 0xf1, 0xa5, 0x3d,
  0x32, 0xc1, 0xf8, 0x3c, 0xa0, 0x93, 0x69, 0xbe, 0x68, 0x71, 0x18, 0x3d,
  0xd5, 0x3b, 0x06, 0xbe, 0xe8, 0x10, 0x1c, 0xba, 0xfe, 0x88, 0x12, 0xbb,
  0xa5, 0x8d, 0xe7, 0x3d, 0x02, 0xe1, 0x33, 0x3e, 0x9d, 0x07, 0x12, 0xbe,
  0xc9, 0xf3, 0xf1, 0xbd, 0x0d, 0xb8, 0x31, 0xbe, 0x56, 0x69, 0x88, 0x3e,
  0xef, 0x90, 0x3b, 0xbe, 0xf1, 0x8a, 0xb8, 0x3d, 0x5a, 0x49, 0x9a, 0xbe,
  0xe5, 0xe7, 0xc3, 0xbd, 0xa3, 0x6b, 0x73, 0x3c, 0xa4, 0x9d, 0x08, 0xbd,
  0xcc, 0xd1, 0x46, 0xbe, 0xb2, 0x2f, 0x14, 0x3e, 0x14, 0x15, 0xe9, 0x3d,
  0xd6, 0x35, 0x7b, 0x3d, 0x72, 0x2a, 0x9a, 0xbe, 0x59, 0x77, 0x4a, 0xbe,
  0xe1, 0xf5, 0x3f, 0xbe, 0x83, 0x72, 0x6a, 0xbe, 0x34, 0x92, 0xab, 0xbd,
  0x76, 0x9c, 0xbe, 0xbe, 0x41, 0xf3, 0x1f, 0xbd, 0x12, 0xe8, 0x9c, 0x3b,
  0xc9, 0x14, 0x20, 0x3e, 0x42, 0x57, 0x59, 0xbe, 0x87, 0x96, 0x64, 0xbe,
  0x0f, 0x4a, 0xdc, 0xbd, 0x09, 0xe1, 0x9f, 0x3d, 0xb0, 0xbc, 0x1d, 0xbd,
  0xcc, 0x03, 0x1b, 0x3e, 0xaa, 0x08, 0x0b, 0x3d, 0x55, 0x28, 0x8e, 0xbd,
  0xb9, 0x8c, 0x12, 0x3d, 0x15, 0xeb, 0x13, 0x3e, 0xfd, 0xd1, 0xa6, 0x3c,
  0x8e, 0x94, 0x56, 0x3e, 0x8c, 0x13, 0xb8, 0x3d, 0x59, 0x47, 0x0d, 0x3d,
  0x40, 0x19, 0xcb, 0xbd, 0x0a, 0x17, 0x5c, 0xbd, 0x39, 0xf6, 0x33, 0xbd,
  0x5d, 0xc8, 0xdd, 0x3d, 0x61, 0x6b, 0x81, 0xbb, 0xef, 0x91, 0x2a, 0x3e,
  0x84, 0xda, 0x20, 0xbe, 0xe9, 0xbf, 0x4b, 0xbe, 0xa9, 0x1c, 0xac, 0xbc,
  0xdc, 0x54, 0x9a, 0x3d, 0x51, 0x1a, 0x1e, 0x3e, 0x25, 0x04, 0xd6, 0xbd,
  0x4a, 0x04, 0x9c, 0x3c, 0x57, 0xdc, 0xf3, 0xbd, 0x0f, 0x21, 0x34, 0x3e,
  0x2c, 0x50, 0x15, 0x3e, 0x21, 0x90, 0x40, 0x3d, 0x93, 0xf2, 0x4c, 0x3e,
  0x27, 0xfa, 0x8e, 0xbe, 0x19, 0x5f, 0xb6, 0xbe, 0x1a, 0x61, 0x2d, 0xbe,
  0x63, 0xe5, 0x2d, 0xbe, 0xe7, 0x0f, 0x01, 0x3e, 0xc5, 0xb9, 0x71, 0xbc,
  0x6e, 0x31, 0x0b, 0xbe, 0xc0, 0xd8, 0x1f, 0x3d, 0x65, 0xa2, 0x4f, 0xbe,
  0xd2, 0x87, 0xcd, 0xbe, 0xbe, 0x65, 0x8b, 0x3d, 0xee, 0xc9, 0xb8, 0xbd,
  0x6a, 0x59, 0x5e, 0xbd, 0xee, 0xa1, 0xc5, 0xbc, 0xd1, 0x50, 0xd2, 0xbd,
  0xd7, 0x15, 0x41, 0xbe, 0xf1, 0x11, 0xe3, 0x3d, 0xf9, 0x05, 0x68, 0xbe,
  0x0b, 0xe9, 0x75, 0x3e, 0xbc, 0x89, 0xda, 0xbc, 0x3c, 0x00, 0x89, 0xbe,
  0xba, 0xe7, 0x4d, 0xbe, 0xa0, 0x60, 0xc4, 0xbe, 0xba, 0x66, 0x9c, 0x3d,
  0xbb, 0xa2, 0x4c, 0xbb, 0x19, 0xce, 0x89, 0x3e, 0x80, 0x2d, 0xc8, 0xbd,
  0x5f, 0x9b, 0xb1, 0x3e, 0x57, 0x97, 0x4a, 0x3e, 0xd6, 0xf8, 0xe4, 0xbc,
  0x74, 0xeb, 0xbb, 0x3d, 0xc5, 0x35, 0x67, 0x3d, 0x46, 0xc7, 0x9c, 0xbc,
  0x5f, 0x0f, 0xae, 0xbd, 0xec, 0xee, 0xed, 0x3d, 0xab, 0xff, 0x86, 0xbc,
  0x76, 0xc8, 0xd7, 0x3d, 0x8c, 0x90, 0xc5, 0x3d, 0xe2, 0x82, 0xfa, 0x3d,
  0xf0, 0x47, 0xc2, 0x3d, 0x74, 0x25, 0xa1, 0xbd, 0xc5, 0xb2, 0xa9, 0xbc,
  0x3b, 0x69, 0xd8, 0x3d, 0x83, 0x68, 0x0b, 0xbe, 0xe4, 0x55, 0x15, 0xbe,
  0xe1, 0x77, 0x6e, 0x3d, 0xf2, 0x1c, 0x4b, 0x3d, 0x70, 0xf4, 0xce, 0x3d,
  0x61, 0x62, 0x67, 0x3d, 0x6a, 0x14, 0x3b, 0x3e, 0x3d, 0xf2, 0xeb, 0x3d,
  0x6c, 0xc4, 0x65, 0xbe, 0xad, 0xbc, 0x11, 0xbe, 0x36, 0x00, 0x46, 0xbe,
  0x98, 0x03, 0x29, 0x3e, 0x2f, 0x09, 0xb8, 0xbd, 0x82, 0x91, 0x2b, 0x3e,
  0x80, 0xda, 0x12, 0x3e, 0x6a, 0x15, 0xe9, 0xbd, 0x69, 0xd7, 0xfd, 0xbd,
  0x4f, 0x9d, 0x2b, 0xbd, 0x7b, 0x71, 0xaf, 0xbc, 0xdb, 0xbd, 0xcb, 0x3c,
  0x6d, 0xad, 0x62, 0xbe, 0xb5, 0x42, 0x71, 0xbe, 0xe8, 0x85, 0x90, 0x3a,
  0x7b, 0x45, 0x6d, 0xbd, 0xb7, 0x4c, 0xdb, 0xbd, 0x6c, 0x26, 0x8e, 0xbd,
  0xbd, 0x84, 0xb6, 0x3d, 0xf0, 0x93, 0x5b, 0xbe, 0x11, 0xa6, 0xe3, 0xbd,
  0xc4, 0x37, 0x54, 0x3e, 0x65, 0xad, 0x67, 0x3e, 0xf2, 0x37, 0xa2, 0x3d,
  0xaf, 0x72, 0xd2, 0x3d, 0x74, 0xf1, 0x0f, 0xbe, 0x4d, 0xf0, 0x1d, 0x3e,
  0xc2, 0x32, 0x12, 0x3e, 0x95, 0x7f, 0x14, 0xbd, 0x34, 0x93, 0xeb, 0xbd,
  0x59, 0xe1, 0xed, 0xbd, 0x4a, 0x09, 0xa0, 0xbe, 0x3c, 0xcc, 0x32, 0xbb,
  0xf8, 0x75, 0xc4, 0xbe, 0xc9, 0xc7, 0x2a, 0xbd, 0x29, 0x43, 0xd9, 0xbd,
  0x14, 0xfb, 0xb9, 0xbd, 0xd6, 0xf1, 0x04, 0xbe, 0x99, 0xde, 0x5b, 0xbe,
  0x0c, 0x35, 0x09, 0x3e, 0x3b, 0xcb, 0x99, 0xbd, 0xab, 0x8c, 0x4a, 0xbe,
  0x6b, 0xd6, 0x21, 0xbe, 0x6e, 0x43, 0x82, 0x3e, 0x84, 0xb4, 0x7b, 0x3e,
  0x55, 0x28, 0x46, 0x3e, 0x49, 0x0c, 0x30, 0xbe, 0xd2, 0x9f, 0x0a, 0x3e,
  0x38, 0x48, 0x70, 0xbc, 0x68, 0x09, 0x0c, 0xba, 0x91, 0x26, 0x4b, 0x3d,
  0x3b, 0x59, 0xc9, 0xbd, 0x7f, 0x06, 0x41, 0xbd, 0xc7, 0x76, 0xc5, 0x3d,
  0x42, 0xb3, 0x6f, 0xbd, 0x48, 0x7f, 0x42, 0xbe, 0x92, 0x9c, 0x94, 0xbc,
  0xe6, 0x20, 0x78, 0xbd, 0x58, 0xff, 0xe0, 0xbd, 0x16, 0x67, 0xec, 0xbd,
  0x11, 0x48, 0x14, 0x3e, 0x7c, 0x5c, 0x8e, 0xbd, 0xcb, 0xf0, 0x8b, 0xbd,
  0xeb, 0x48, 0x3a, 0xbe, 0xd7, 0x47, 0xba, 0xbd, 0xbd, 0xdc, 0x11, 0x3e,
  0xdc, 0x11, 0x0e, 0xbd, 0x56, 0x41, 0x99, 0xbd, 0xa0, 0xc3, 0x91, 0x3d,
  0x6b, 0x25, 0xe3, 0x3d, 0x2e, 0xf3, 0x48, 0x3e, 0xc9, 0xc7, 0x01, 0x3e,
  0x76, 0x18, 0x06, 0xbe, 0x8f, 0xa0, 0x39, 0xbe, 0x4f, 0x4c, 0x91, 0x3d,
  0x97, 0x5a, 0x8d, 0xbd, 0x7f, 0xa8, 0xdb, 0xbd, 0xc7, 0xc6, 0xaf, 0x3d,
  0x67, 0x50, 0x21, 0xbe, 0x52, 0x0d, 0xc3, 0x3d, 0x55, 0x31, 0x8d, 0x3c,
  0x75, 0x68, 0x46, 0x3c, 0x5b, 0xd6, 0x5f, 0xbd, 0x62, 0x09, 0xb6, 0xbd,
  0xc0, 0x2d, 0x6b, 0x3d, 0x99, 0xab, 0xf3, 0x3d, 0x4a, 0xde, 0x04, 0x3e,
  0x12, 0xd8, 0x3b, 0xbe, 0x16, 0x8d, 0x78, 0xbe, 0x9e, 0xa7, 0x18, 0xbd,
  0x88, 0xe2, 0x53, 0x3d, 0xf8, 0x0f, 0x9d, 0x3e, 0x19, 0xa7, 0x25, 0x3e,
  0xb9, 0xee, 0x97, 0x3d, 0x03, 0x0f, 0xb2, 0x3d, 0x9b, 0x7e, 0x80, 0x3d,
  0x6d, 0x49, 0x38, 0xbe, 0x1e, 0x9d, 0x32, 0x3e, 0xa3, 0x22, 0x06, 0xbe,
  0xb2, 0x18, 0x07, 0xbe, 0x57, 0x6d, 0x4c, 0xbe, 0x51, 0xc2, 0x1d, 0xbd,
  0x8b, 0xfb, 0x5b, 0x3e, 0xc8, 0xcb, 0x34, 0xbe, 0xb6, 0xcb, 0x97, 0xbd,
  0x0a, 0x15, 0x38, 0xbe, 0xa8, 0xcd, 0xbc, 0xbd, 0x9c, 0xee, 0x48, 0xbe,
  0xdb, 0xb9, 0xa6, 0x3b, 0xf7, 0xbd, 0x22, 0xbe, 0x57, 0x74, 0x62, 0x3e,
  0x68, 0x3d, 0xca, 0xbb, 0x8d, 0x96, 0x7e, 0x3d, 0x42, 0xe9, 0x62, 0x3e,
  0x24, 0x33, 0x29, 0x3e, 0xf7, 0xdc, 0x06, 0xbe, 0xeb, 0xc5, 0x4c, 0x3e,
  0xba, 0xd6, 0x01, 0xbd, 0x39, 0x77, 0xe1, 0xbd, 0xc7, 0x2c, 0xa6, 0x3c,
  0x47, 0xa6, 0x20, 0x3e, 0x8a, 0xba, 0x86, 0xbc, 0xa6, 0x3e, 0x61, 0x3e,
  0xc8, 0x43, 0x10, 0xbe, 0xf6, 0xa7, 0x21, 0x3c, 0x7f, 0x4a, 0x41, 0x3b,
  0x4e, 0x42, 0x17, 0xbe, 0x63, 0xb7, 0x01, 0xbe, 0x90, 0xbe, 0x0e, 0xbe,
  0xf9, 0xef, 0x6b, 0x3e, 0xbb, 0xba, 0xc8, 0xbd, 0x28, 0xfd, 0x47, 0x3e,
  0x7b, 0xda, 0xb7, 0xbd, 0x38, 0x1c, 0xc6, 0x3d, 0xfd, 0xba, 0x23, 0x39,
  0x80, 0x40, 0x29, 0x3e, 0x37, 0x73, 0x83, 0x3d, 0x5b, 0x59, 0xdd, 0xbd,
  0x7e, 0x28, 0xee, 0xbd, 0x61, 0xf1, 0x85, 0xbb, 0x0c, 0x7c, 0x30, 0xbe,
  0xad, 0xae, 0x38, 0xbe, 0x0b, 0x13, 0x32, 0xbe, 0x63, 0xb3, 0x38, 0xbc,
  0x3c, 0xdd, 0x14, 0x3e, 0x2c, 0x9a, 0x06, 0xbd, 0x06, 0xdd, 0x51, 0xbe,
  0xbd, 0x6d, 0x9c, 0xbd, 0xc1, 0x7b, 0x2a, 0xbe, 0x8b, 0x9f, 0x8a, 0xbc,
  0x9e, 0x21, 0x5a, 0x3e, 0xc5, 0x83, 0x57, 0x3e, 0x6d, 0x98, 0xcd, 0x3d,
  0x8a, 0x6b, 0x14, 0xbe, 0x38, 0xca, 0x94, 0xbd, 0x28, 0x50, 0x34, 0x3e,
  0x23, 0x44, 0x93, 0xbe, 0x8c, 0x81, 0x82, 0xbe, 0x1f, 0xdd, 0x80, 0x3d,
  0x09, 0xfd, 0x82, 0x3b, 0xff, 0x96, 0x76, 0x3a, 0xe3, 0x66, 0x2c, 0x3e,
  0xff, 0xe1, 0xa4, 0x3d, 0x58, 0x7b, 0x5f, 0xbe, 0x0f, 0xb3, 0x3e, 0x3e,
  0x25, 0x3b, 0x74, 0x3d, 0x59, 0x21, 0x27, 0xbe, 0x17, 0xe4, 0x75, 0x3c,
  0x85, 0xac, 0x14, 0x3e, 0xa4, 0x6d, 0x7e, 0x3d, 0x9e, 0x29, 0x73, 0xbe,
  0xda, 0x04, 0x17, 0x3e, 0x24, 0x0f, 0x94, 0x3e, 0x25, 0xa9, 0x4e, 0xbe,
  0xd7, 0xe8, 0xa7, 0xbd, 0x1b, 0x95, 0xd1, 0x3c, 0x64, 0xa6, 0xad, 0x3d,
  0x4b, 0x9f, 0x8d, 0xbc, 0xa0, 0x91, 0xea, 0xbd, 0x1c, 0x88, 0x6a, 0xbe,
  0x74, 0x81, 0x38, 0xbe, 0x82, 0x36, 0x83, 0x3c, 0x2a, 0x6d, 0xc2, 0x3c,
  0x62, 0xfe, 0x6e, 0x3d, 0x17, 0x7e, 0xde, 0xbc, 0x51, 0x95, 0x97, 0xbd,
  0x36, 0xf1, 0x7f, 0xba, 0x0b, 0xfb, 0xfc, 0xbc, 0x87, 0x11, 0x4c, 0xbe,
  0x8a, 0xd1, 0xb7, 0xbc, 0x67, 0x65, 0x86, 0x3d, 0xf2, 0xd0, 0x16, 0xbe,
  0x5f, 0x5b, 0x7a, 0x3e, 0x1d, 0xb4, 0x1f, 0x3e, 0x2f, 0xcd, 0xd2, 0xbd,
  0xa8, 0xba, 0x5e, 0x3e, 0x2b, 0xc6, 0xa7, 0xbd, 0x09, 0x9f, 0x76, 0xbe,
  0x63, 0xb6, 0x57, 0x3e, 0xe5, 0xab, 0x82, 0x3d, 0xf1, 0xda, 0xd1, 0xbd,
  0x6e, 0xee, 0x19, 0x3d, 0x0a, 0xd4, 0x3e, 0x3d, 0x6a, 0xad, 0x5a, 0xbe,
  0x25, 0x46, 0x54, 0x3e, 0x16, 0xf8, 0x21, 0xbe, 0x3c, 0xa6, 0xbe, 0x3d,
  0x80, 0x12, 0x41, 0xbd, 0x1b, 0xcc, 0x14, 0xbe, 0xe9, 0x2b, 0x8a, 0x3d,
  0x1f, 0x84, 0xbd, 0xbd, 0x19, 0x6b, 0xf9, 0xbd, 0x2e, 0xec, 0x45, 0x3e,
  0x4d, 0x74, 0x35, 0x3d, 0xa2, 0x1f, 0x73, 0x3e, 0x85, 0x9a, 0x80, 0x3e,
  0x2e, 0xcc, 0x67, 0x3c, 0x82, 0xb9, 0x1d, 0x3e, 0x28, 0xc3, 0x45, 0x3d,
  0xe3, 0x42, 0xc6, 0x3d, 0x4a, 0x14, 0xea, 0x3d, 0xd4, 0xe6, 0x16, 0xbe,
  0xdd, 0x35, 0x08, 0x3e, 0x9a, 0xab, 0xf8, 0x3c, 0x17, 0xa7, 0x3c, 0x3e,
  0x45, 0x08, 0x6b, 0x3e, 0x75, 0xb2, 0x1d, 0x3e, 0xe0, 0x01, 0x73, 0xbe,
  0xfe, 0x78, 0x9f, 0xbd, 0x6f, 0x5d, 0x2e, 0xbe, 0xe0, 0x89, 0xc9, 0xbd,
  0xd0, 0x42, 0x49, 0x3e, 0x8a, 0x0d, 0xb2, 0xbc, 0x0f, 0xe9, 0x85, 0xbd,
  0x4d, 0xb7, 0x28, 0xbe, 0x47, 0x93, 0xce, 0x3d, 0xb0, 0x46, 0xdf, 0xbd,
  0x84, 0xa0, 0x6b, 0xbd, 0xe5, 0x43, 0xf3, 0x3c, 0x8e, 0x27, 0x80, 0x3d,
  0x60, 0x90, 0x61, 0xbe, 0xc9, 0xdb, 0x0e, 0xbd, 0x36, 0x2f, 0xcd, 0xbe,
  0x52, 0x9a, 0x45, 0x3d, 0xba, 0x4c, 0x60, 0xba, 0xe4, 0x48, 0xc3, 0x3d,
  0x5d, 0x77, 0xe2, 0x3c, 0x67, 0xcf, 0xbb, 0x3d, 0xec, 0x70, 0x4a, 0x3d,
  0x0c, 0x29, 0x20, 0xbe, 0x20, 0x62, 0x9b, 0x3c, 0x05, 0x53, 0x11, 0xbe,
  0x29, 0x5f, 0x51, 0xbd, 0x71, 0x38, 0x1c, 0x3e, 0xf3, 0x97, 0x54, 0xbe,
  0xe7, 0x7f, 0x61, 0xbd, 0x6d, 0x84, 0xe3, 0xbd, 0x99, 0xce, 0x4b, 0x3d,
  0x05, 0x4b, 0x27, 0x3d, 0x97, 0x02, 0x80, 0x3d, 0x4a, 0xb2, 0xd0, 0x3d,
  0x72, 0xce, 0x6a, 0x3d, 0x7d, 0xc8, 0x06, 0xbe, 0xb4, 0xc9, 0x3b, 0xbe,
  0xc6, 0xd0, 0x40, 0x3e, 0x9f, 0xae, 0xc9, 0x3d, 0x51, 0x33, 0xbd, 0x3d,
  0x04, 0x5f, 0x17, 0x3c, 0x8b, 0xcd, 0x4f, 0x3e, 0x74, 0xcb, 0x96, 0xbd,
  0x88, 0xbf, 0x70, 0x3d, 0x2b, 0xce, 0xe7, 0x3d, 0xf2, 0x20, 0x39, 0xbe,
  0xe9, 0xba, 0x58, 0xbe, 0x11, 0x9e, 0xc0, 0xbd, 0xab, 0xc0, 0xc3, 0x3d,
  0x40, 0x9d, 0x96, 0x3c, 0x61, 0xcb, 0x91, 0xbd, 0x33, 0x58, 0x54, 0x3e,
  0xa2, 0xf1, 0x40, 0x3e, 0xa6, 0x65, 0x78, 0x3d, 0x71, 0xf9, 0xd4, 0xbd,
  0x95, 0x6a, 0x2b, 0x3d, 0x41, 0x37, 0x05, 0xbe, 0xe6, 0xa7, 0x74, 0xbd,
  0x1c, 0x8c, 0x1e, 0x3e, 0xa4, 0xdb, 0xcc, 0xbc, 0x7e, 0xee, 0x6f, 0xbd,
  0x05, 0x81, 0x27, 0xbe, 0xe7, 0x38, 0x0e, 0x3e, 0x9b, 0x97, 0x19, 0x3a,
  0x97, 0xf6, 0x6b, 0x3e, 0x34, 0x02, 0xb3, 0xbd, 0xde, 0x87, 0x69, 0xbd,
  0xbf, 0x31, 0x23, 0x3e, 0x08, 0x8c, 0x0e, 0xbe, 0x88, 0xb6, 0x59, 0xbd,
  0xba, 0xc5, 0x3c, 0x3e, 0x6f, 0x76, 0x2b, 0xbe, 0x21, 0x0c, 0x32, 0x3e,
  0xe9, 0xf8, 0x55, 0xbe, 0x1a, 0x03, 0x54, 0x3e, 0xf6, 0x25, 0xc5, 0xbe,
  0x3a, 0x1b, 0x0a, 0xbe, 0x10, 0xa4, 0xc8, 0xbe, 0xf3, 0x1a, 0xb6, 0x3d,
  0x43, 0x11, 0x11, 0xbf, 0x04, 0xbe, 0x86, 0x3e, 0xed, 0x5e, 0xdb, 0x3d,
  0x3e, 0x00, 0x50, 0x3e, 0x3b, 0xba, 0x9b, 0x3d, 0xac, 0xac, 0x85, 0xbd,
  0x3e, 0x74, 0x05, 0xbf, 0xd8, 0xda, 0x7c, 0x3e, 0x97, 0x39, 0xf9, 0xbe,
  0xea, 0xe8, 0x92, 0x3e, 0xab, 0xe0, 0x68, 0xbe, 0x3e, 0x80, 0x0c, 0xbe,
  0x92, 0x06, 0x0a, 0xbd, 0x70, 0x2c, 0xc3, 0xbc, 0x49, 0x10, 0x4a, 0xbe,
  0xc9, 0xe0, 0x8d, 0xbd, 0x99, 0x5b, 0x66, 0xbe, 0x91, 0x1e, 0xa4, 0x3d,
  0x6f, 0xee, 0xbd, 0x3d, 0x6b, 0xbc, 0x47, 0x3d, 0x40, 0xac, 0x8f, 0x3d,
  0x78, 0xf0, 0x94, 0xbd, 0xf6, 0x03, 0x2d, 0xbe, 0x93, 0x82, 0x37, 0xbe,
  0x26, 0xad, 0x77, 0x3d, 0xf3, 0x67, 0x07, 0xbd, 0xe5, 0x4f, 0x28, 0x3e,
  0x24, 0x1a, 0xe0, 0x3d, 0xdc, 0xa1, 0x36, 0xbe, 0xf4, 0x81, 0xc9, 0x3c,
  0x46, 0xb5, 0xb1, 0xbe, 0x76, 0x5f, 0x38, 0x3e, 0x8d, 0x9c, 0x54, 0x3d,
  0x74, 0xa5, 0x87, 0x3e, 0x0e, 0x43, 0x8c, 0xbe, 0xe5, 0xde, 0xa7, 0xbd,
  0x86, 0x48, 0xc2, 0xbd, 0xb8, 0xa6, 0x38, 0xbe, 0x68, 0x01, 0xb7, 0x3b,
  0xa3, 0xdd, 0x80, 0xbe, 0xe5, 0xbf, 0xa9, 0xbe, 0x02, 0x8b, 0x98, 0x3d,
  0x75, 0x4b, 0x55, 0x3e, 0x04, 0x57, 0xd6, 0x3d, 0x85, 0x04, 0x49, 0xbe,
  0xfe, 0x44, 0x61, 0x3d, 0xbd, 0x0e, 0xb4, 0xbd, 0x44, 0x4e, 0x2e, 0x3e,
  0xb6, 0x68, 0x9b, 0xbe, 0x95, 0x0e, 0xf2, 0x3d, 0x08, 0xab, 0xd8, 0x3d,
  0xf3, 0xe2, 0x13, 0x3e, 0x84, 0xbe, 0x94, 0x3c, 0x43, 0x80, 0xa7, 0xbe,
  0xc3, 0xa7, 0xe2, 0xbe, 0x3b, 0xb9, 0x94, 0xbd, 0x40, 0x0d, 0x99, 0xbe,
  0x26, 0x28, 0x7f, 0x3e, 0xee, 0xb2, 0xce, 0xbd, 0x66, 0xfd, 0xff, 0xff,
  0x04, 0x00, 0x00, 0x00, 0x80, 0x01, 0x00, 0x00, 0xa1, 0xdf, 0x9e, 0xbd,
  0x90, 0x28, 0x5e, 0x3e, 0x37, 0x3f, 0x1c, 0xbd, 0x51, 0x20, 0x5e, 0xbe,
  0x85, 0xee, 0x2d, 0xb9, 0x59, 0xf2, 0xa5, 0x3c, 0x32, 0xb1, 0xd6, 0x3d,
  0xfe, 0x80, 0xd8, 0x3b, 0x09, 0x29, 0x00, 0xbe, 0xea, 0xf6, 0x91, 0xbc,
  0x85, 0x7d, 0x3e, 0xbd, 0x1a, 0x7f, 0xb6, 0xbd, 0xbe, 0x62, 0x43, 0xbe,
  0x5d, 0xfa, 0xd1, 0x3d, 0x0b, 0x0d, 0x52, 0xbe, 0x2f, 0xeb, 0x8e, 0xbc,
  0xe8, 0x6b, 0xe4, 0xbb, 0xc0, 0xd1, 0x46, 0xbe, 0x4f, 0xb9, 0x27, 0x3c,
  0x2d, 0x88, 0xf8, 0xbd, 0x16, 0xd6, 0x0d, 0xbd, 0xa0, 0x6c, 0x6d, 0x3e,
  0xca, 0x66, 0x95, 0x3d, 0xb1, 0xc0, 0x23, 0x3e, 0x4a, 0xb2, 0x8c, 0xbb,
  0x18, 0xf0, 0x56, 0xba, 0x3a, 0x6e, 0xc2, 0xbd, 0x5a, 0xf1, 0xbc, 0x3b,
  0x3d, 0xe2, 0x93, 0xbb, 0xc0, 0x18, 0x15, 0xbd, 0x76, 0x61, 0x49, 0x3d,
  0xd4, 0x2b, 0xc8, 0x3c, 0xbb, 0x3f, 0x24, 0x3d, 0x01, 0xc9, 0x7a, 0xbd,
  0x98, 0xc7, 0xe5, 0xbd, 0x71, 0xc4, 0x85, 0x3d, 0xdf, 0x6d, 0xbe, 0x3d,
  0x2f, 0xcc, 0xc0, 0xbc, 0x61, 0x83, 0xc3, 0x3d, 0xb9, 0x1b, 0x38, 0x3e,
  0xa1, 0xcc, 0x94, 0xbe, 0x7c, 0x5e, 0x65, 0xbd, 0x08, 0x07, 0x64, 0xbc,
  0x24, 0x2b, 0x6d, 0x3b, 0x99, 0x2f, 0xe7, 0xbd, 0xfb, 0x21, 0x0b, 0xbd,
  0x4a, 0xda, 0x06, 0x3e, 0x88, 0xcd, 0x27, 0xbe, 0xb6, 0x4b, 0x36, 0x3d,
  0xd5, 0xa6, 0x35, 0xbe, 0xe6, 0xfd, 0xdc, 0xbd, 0x0c, 0xbb, 0xd7, 0x3d,
  0xe6, 0xd0, 0x37, 0xbe, 0x6e, 0xab, 0x00, 0x3e, 0xcb, 0x2a, 0xfb, 0x3b,
  0x9d, 0xce, 0x15, 0xbe, 0x80, 0x6b, 0x10, 0x3e, 0x58, 0x0f, 0x59, 0x3d,
  0xbc, 0xf4, 0xc6, 0x3c, 0x7e, 0x5a, 0x5e, 0x3d, 0x58, 0x91, 0x2e, 0x3e,
  0x81, 0xa3, 0xfc, 0xbd, 0xeb, 0x6e, 0x1d, 0xbe, 0xbe, 0xdf, 0x82, 0x3d,
  0x6c, 0xa7, 0xbb, 0x3d, 0xf4, 0xc4, 0xce, 0xbd, 0xd0, 0xa2, 0xde, 0xbd,
  0xfe, 0x8e, 0x1a, 0xbe, 0x12, 0x02, 0x45, 0xbd, 0xd0, 0xd9, 0x0f, 0x3e,
  0x7e, 0xf4, 0x8a, 0x3d, 0x0e, 0x67, 0x0e, 0x3c, 0xd3, 0xee, 0x58, 0xbe,
  0xd8, 0xe1, 0x90, 0x3c, 0x11, 0xc2, 0x97, 0xbd, 0xc6, 0xd8, 0x61, 0xbe,
  0xd3, 0xf8, 0xee, 0x3d, 0xc2, 0x8b, 0x91, 0xbe, 0x0b, 0x51, 0xf8, 0x3b,
  0xef, 0x27, 0xcf, 0x3d, 0x8a, 0x61, 0x2e, 0xbd, 0x78, 0xc4, 0x4c, 0xbd,
  0x89, 0x93, 0xc1, 0x3d, 0x10, 0x7e, 0x0d, 0x3e, 0xc2, 0x70, 0x42, 0xbd,
  0x76, 0x51, 0xd9, 0x3c, 0xdf, 0x87, 0x9a, 0x3e, 0x8f, 0x9c, 0x9c, 0x3d,
  0xa0, 0x73, 0x1a, 0xbe, 0xd3, 0xfc, 0x8c, 0x3d, 0xf5, 0xeb, 0xb4, 0xbd,
  0xee, 0x22, 0x05, 0x3e, 0xb8, 0xec, 0x04, 0xbe, 0x7b, 0x2e, 0x61, 0xbe,
  0xaa, 0xf8, 0x77, 0x3d, 0x47, 0x94, 0x37, 0xbe, 0xf2, 0xfe, 0xff, 0xff,
  0x04, 0x00, 0x00, 0x00, 0x40, 0x00, 0x00, 0x00, 0x35, 0x53, 0x00, 0xbe,
  0xae, 0x38, 0x11, 0x3f, 0xa6, 0x02, 0x45, 0xbf, 0x72, 0xed, 0xb1, 0x3e,
  0x63, 0x00, 0xaf, 0xbe, 0x2f, 0x17, 0xcd, 0x3e, 0x4d, 0x32, 0xdf, 0xbc,
  0x49, 0xb1, 0x82, 0xbd, 0x4b, 0x0d, 0x85, 0x3d, 0xf1, 0xff, 0xc8, 0xbd,
  0xad, 0xf4, 0x01, 0xbf, 0x0f, 0x20, 0x1a, 0xbf, 0x11, 0x08, 0x01, 0xbf,
  0xfd, 0x5c, 0x91, 0x3d, 0x43, 0x86, 0x22, 0x3e, 0x22, 0x2d, 0x88, 0x3d,
  0x3e, 0xff, 0xff, 0xff, 0x04, 0x00, 0x00, 0x00, 0x20, 0x00, 0x00, 0x00,
  0x75, 0x8a, 0x87, 0xbd, 0x78, 0xff, 0x6f, 0xbf, 0x57, 0x20, 0x52, 0xbe,
  0xfe, 0x65, 0x43, 0xbf, 0xf2, 0xcf, 0x54, 0x3e, 0xe8, 0xa1, 0x2f, 0xbf,
  0xa8, 0xc6, 0xe2, 0xbd, 0x9e, 0x6c, 0xec, 0xbe, 0xc4, 0xf5, 0xff, 0xff,
  0xc8, 0xf5, 0xff, 0xff, 0x0f, 0x00, 0x00, 0x00, 0x4d, 0x4c, 0x49, 0x52,
  0x20, 0x43, 0x6f, 0x6e, 0x76, 0x65, 0x72, 0x74, 0x65, 0x64, 0x2e, 0x00,
  0x01, 0x00, 0x00, 0x00, 0x14, 0x00, 0x00, 0x00, 0x00, 0x00, 0x0e, 0x00,
  0x18, 0x00, 0x14, 0x00, 0x10, 0x00, 0x0c, 0x00, 0x08, 0x00, 0x04, 0x00,
  0x0e, 0x00, 0x00, 0x00, 0x14, 0x00, 0x00, 0x00, 0x1c, 0x00, 0x00, 0x00,
  0x58, 0x02, 0x00, 0x00, 0x5c, 0x02, 0x00, 0x00, 0x60, 0x02, 0x00, 0x00,
  0x04, 0x00, 0x00, 0x00, 0x6d, 0x61, 0x69, 0x6e, 0x00, 0x00, 0x00, 0x00,
  0x08, 0x00, 0x00, 0x00, 0xf4, 0x01, 0x00, 0x00, 0x90, 0x01, 0x00, 0x00,
  0x40, 0x01, 0x00, 0x00, 0xf0, 0x00, 0x00, 0x00, 0xc8, 0x00, 0x00, 0x00,
  0x78, 0x00, 0x00, 0x00, 0x40, 0x00, 0x00, 0x00, 0x04, 0x00, 0x00, 0x00,
  0x9a, 0xfe, 0xff, 0xff, 0x1c, 0x00, 0x00, 0x00, 0x00, 0x00, 0x00, 0x09,
  0x1c, 0x00, 0x00, 0x00, 0x20, 0x00, 0x00, 0x00, 0x04, 0x00, 0x00, 0x00,
  0x00, 0x00, 0x06, 0x00, 0x08, 0x00, 0x04, 0x00, 0x06, 0x00, 0x00, 0x00,
  0x00, 0x00, 0x80, 0x3f, 0x01, 0x00, 0x00, 0x00, 0x11, 0x00, 0x00, 0x00,
  0x01, 0x00, 0x00, 0x00, 0x10, 0x00, 0x00, 0x00, 0xd2, 0xfe, 0xff, 0xff,
  0x14, 0x00, 0x00, 0x00, 0x00, 0x00, 0x00, 0x08, 0x10, 0x00, 0x00, 0x00,
  0x14, 0x00, 0x00, 0x00, 0x03, 0x00, 0x00, 0x00, 0x90, 0xf6, 0xff, 0xff,
  0x01, 0x00, 0x00, 0x00, 0x10, 0x00, 0x00, 0x00, 0x03, 0x00, 0x00, 0x00,
  0x0f, 0x00, 0x00, 0x00, 0x09, 0x00, 0x00, 0x00, 0x06, 0x00, 0x00, 0x00,
  0x06, 0xff, 0xff, 0xff, 0x1c, 0x00, 0x00, 0x00, 0x00, 0x00, 0x00, 0x08,
  0x1c, 0x00, 0x00, 0x00, 0x20, 0x00, 0x00, 0x00, 0x03, 0x00, 0x00, 0x00,
  0x00, 0x00, 0x06, 0x00, 0x08, 0x00, 0x07, 0x00, 0x06, 0x00, 0x00, 0x00,
  0x00, 0x00, 0x00, 0x01, 0x01, 0x00, 0x00, 0x00, 0x0f, 0x00, 0x00, 0x00,
  0x03, 0x00, 0x00, 0x00, 0x0e, 0x00, 0x00, 0x00, 0x08, 0x00, 0x00, 0x00,
  0x05, 0x00, 0x00, 0x00, 0x00, 0x00, 0x0a, 0x00, 0x10, 0x00, 0x0c, 0x00,
  0x08, 0x00, 0x04, 0x00, 0x0a, 0x00, 0x00, 0x00, 0x0c, 0x00, 0x00, 0x00,
  0x10, 0x00, 0x00, 0x00, 0x02, 0x00, 0x00, 0x00, 0x01, 0x00, 0x00, 0x00,
  0x0e, 0x00, 0x00, 0x00, 0x02, 0x00, 0x00, 0x00, 0x0d, 0x00, 0x00, 0x00,
  0x07, 0x00, 0x00, 0x00, 0x76, 0xff, 0xff, 0xff, 0x24, 0x00, 0x00, 0x00,
  0x00, 0x00, 0x00, 0x05, 0x30, 0x00, 0x00, 0x00, 0x34, 0x00, 0x00, 0x00,
  0x01, 0x00, 0x00, 0x00, 0x00, 0x00, 0x0e, 0x00, 0x14, 0x00, 0x00, 0x00,
  0x10, 0x00, 0x0c, 0x00, 0x08, 0x00, 0x04, 0x00, 0x0e, 0x00, 0x00, 0x00,
  0x03, 0x00, 0x00, 0x00, 0x01, 0x00, 0x00, 0x00, 0x03, 0x00, 0x00, 0x00,
  0x01, 0x00, 0x00, 0x00, 0x01, 0x00, 0x00, 0x00, 0x0d, 0x00, 0x00, 0x00,
  0x01, 0x00, 0x00, 0x00, 0x0c, 0x00, 0x00, 0x00, 0x62, 0xff, 0xff, 0xff,
  0x10, 0x00, 0x00, 0x00, 0x00, 0x00, 0x00, 0x01, 0x18, 0x00, 0x00, 0x00,
  0x1c, 0x00, 0x00, 0x00, 0x54, 0xff, 0xff, 0xff, 0x00, 0x00, 0x00, 0x01,
  0x01, 0x00, 0x00, 0x00, 0x01, 0x00, 0x00, 0x00, 0x01, 0x00, 0x00, 0x00,
  0x0c, 0x00, 0x00, 0x00, 0x03, 0x00, 0x00, 0x00, 0x0b, 0x00, 0x00, 0x00,
  0x04, 0x00, 0x00, 0x00, 0x02, 0x00, 0x00, 0x00, 0x00, 0x00, 0x0e, 0x00,
  0x1a, 0x00, 0x14, 0x00, 0x10, 0x00, 0x0c, 0x00, 0x0b, 0x00, 0x04, 0x00,
  0x0e, 0x00, 0x00, 0x00, 0x24, 0x00, 0x00, 0x00, 0x00, 0x00, 0x00, 0x05,
  0x34, 0x00, 0x00, 0x00, 0x38, 0x00, 0x00, 0x00, 0x01, 0x00, 0x00, 0x00,
  0x00, 0x00, 0x0e, 0x00, 0x18, 0x00, 0x17, 0x00, 0x10, 0x00, 0x0c, 0x00,
  0x08, 0x00, 0x04, 0x00, 0x0e, 0x00, 0x00, 0x00, 0x03, 0x00, 0x00, 0x00,
  0x03, 0x00, 0x00, 0x00, 0x03, 0x00, 0x00, 0x00, 0x03, 0x00, 0x00, 0x00,
  0x00, 0x00, 0x00, 0x01, 0x01, 0x00, 0x00, 0x00, 0x0b, 0x00, 0x00, 0x00,
  0x01, 0x00, 0x00, 0x00, 0x0a, 0x00, 0x00, 0x00, 0x00, 0x00, 0x0e, 0x00,
  0x14, 0x00, 0x00, 0x00, 0x10, 0x00, 0x0c, 0x00, 0x0b, 0x00, 0x04, 0x00,
  0x0e, 0x00, 0x00, 0x00, 0x1c, 0x00, 0x00, 0x00, 0x00, 0x00, 0x00, 0x01,
  0x24, 0x00, 0x00, 0x00, 0x28, 0x00, 0x00, 0x00, 0x0c, 0x00, 0x10, 0x00,
  0x00, 0x00, 0x0c, 0x00, 0x08, 0x00, 0x07, 0x00, 0x0c, 0x00, 0x00, 0x00,
  0x00, 0x00, 0x00, 0x01, 0x01, 0x00, 0x00, 0x00, 0x01, 0x00, 0x00, 0x00,
  0x01, 0x00, 0x00, 0x00, 0x0a, 0x00, 0x00, 0x00, 0x03, 0x00, 0x00, 0x00,
  0x00, 0x00, 0x00, 0x00, 0x03, 0x00, 0x00, 0x00, 0x01, 0x00, 0x00, 0x00,
  0x01, 0x00, 0x00, 0x00, 0x11, 0x00, 0x00, 0x00, 0x01, 0x00, 0x00, 0x00,
  0x00, 0x00, 0x00, 0x00, 0x12, 0x00, 0x00, 0x00, 0x60, 0x07, 0x00, 0x00,
  0xf0, 0x06, 0x00, 0x00, 0x80, 0x06, 0x00, 0x00, 0x2c, 0x06, 0x00, 0x00,
  0xd8, 0x05, 0x00, 0x00, 0x84, 0x05, 0x00, 0x00, 0x2c, 0x05, 0x00, 0x00,
  0xe0, 0x04, 0x00, 0x00, 0x80, 0x04, 0x00, 0x00, 0x34, 0x04, 0x00, 0x00,
  0x70, 0x03, 0x00, 0x00, 0xfc, 0x02, 0x00, 0x00, 0x30, 0x02, 0x00, 0x00,
  0xbc, 0x01, 0x00, 0x00, 0x60, 0x01, 0x00, 0x00, 0xd8, 0x00, 0x00, 0x00,
  0x60, 0x00, 0x00, 0x00, 0x04, 0x00, 0x00, 0x00, 0xfe, 0xf8, 0xff, 0xff,
  0x00, 0x00, 0x00, 0x01, 0x14, 0x00, 0x00, 0x00, 0x1c, 0x00, 0x00, 0x00,
  0x1c, 0x00, 0x00, 0x00, 0x12, 0x00, 0x00, 0x00, 0x34, 0x00, 0x00, 0x00,
  0x02, 0x00, 0x00, 0x00, 0xff, 0xff, 0xff, 0xff, 0x02, 0x00, 0x00, 0x00,
  0xe0, 0xf8, 0xff, 0xff, 0x19, 0x00, 0x00, 0x00, 0x53, 0x74, 0x61, 0x74,
  0x65, 0x66, 0x75, 0x6c, 0x50, 0x61, 0x72, 0x74, 0x69, 0x74, 0x69, 0x6f,
  0x6e, 0x65, 0x64, 0x43, 0x61, 0x6c, 0x6c, 0x3a, 0x30, 0x00, 0x00, 0x00,
  0x02, 0x00, 0x00, 0x00, 0x01, 0x00, 0x00, 0x00, 0x02, 0x00, 0x00, 0x00,
  0x56, 0xf9, 0xff, 0xff, 0x00, 0x00, 0x00, 0x01, 0x14, 0x00, 0x00, 0x00,
  0x1c, 0x00, 0x00, 0x00, 0x1c, 0x00, 0x00, 0x00, 0x11, 0x00, 0x00, 0x00,
  0x50, 0x00, 0x00, 0x00, 0x02, 0x00, 0x00, 0x00, 0xff, 0xff, 0xff, 0xff,
  0x02, 0x00, 0x00, 0x00, 0x38, 0xf9, 0xff, 0xff, 0x34, 0x00, 0x00, 0x00,
  0x73, 0x65, 0x71, 0x75, 0x65, 0x6e, 0x74, 0x69, 0x61, 0x6c, 0x2f, 0x64,
  0x65, 0x6e, 0x73, 0x65, 0x5f, 0x31, 0x2f, 0x4d, 0x61, 0x74, 0x4d, 0x75,
  0x6c, 0x3b, 0x73, 0x65, 0x71, 0x75, 0x65, 0x6e, 0x74, 0x69, 0x61, 0x6c,
  0x2f, 0x64, 0x65, 0x6e, 0x73, 0x65, 0x5f, 0x31, 0x2f, 0x42, 0x69, 0x61,
  0x73, 0x41, 0x64, 0x64, 0x00, 0x00, 0x00, 0x00, 0x02, 0x00, 0x00, 0x00,
  0x01, 0x00, 0x00, 0x00, 0x02, 0x00, 0x00, 0x00, 0xca, 0xf9, 0xff, 0xff,
  0x00, 0x00, 0x00, 0x01, 0x14, 0x00, 0x00, 0x00, 0x1c, 0x00, 0x00, 0x00,
  0x1c, 0x00, 0x00, 0x00, 0x10, 0x00, 0x00, 0x00, 0x60, 0x00, 0x00, 0x00,
  0x02, 0x00, 0x00, 0x00, 0xff, 0xff, 0xff, 0xff, 0x10, 0x00, 0x00, 0x00,
  0xac, 0xf9, 0xff, 0xff, 0x46, 0x00, 0x00, 0x00, 0x73, 0x65, 0x71, 0x75,
  0x65, 0x6e, 0x74, 0x69, 0x61, 0x6c, 0x2f, 0x64, 0x65, 0x6e, 0x73, 0x65,
  0x2f, 0x4d, 0x61, 0x74, 0x4d, 0x75, 0x6c, 0x3b, 0x73, 0x65, 0x71, 0x75,
  0x65, 0x6e, 0x74, 0x69, 0x61, 0x6c, 0x2f, 0x64, 0x65, 0x6e, 0x73, 0x65,
  0x2f, 0x52, 0x65, 0x6c, 0x75, 0x3b, 0x73, 0x65, 0x71, 0x75, 0x65, 0x6e,
  0x74, 0x69, 0x61, 0x6c, 0x2f, 0x64, 0x65, 0x6e, 0x73, 0x65, 0x2f, 0x42,
  0x69, 0x61, 0x73, 0x41, 0x64, 0x64, 0x00, 0x00, 0x02, 0x00, 0x00, 0x00,
  0x01, 0x00, 0x00, 0x00, 0x10, 0x00, 0x00, 0x00, 0x4e, 0xfa, 0xff, 0xff,
  0x00, 0x00, 0x00, 0x01, 0x14, 0x00, 0x00, 0x00, 0x1c, 0x00, 0x00, 0x00,
  0x1c, 0x00, 0x00, 0x00, 0x0f, 0x00, 0x00, 0x00, 0x34, 0x00, 0x00, 0x00,
  0x02, 0x00, 0x00, 0x00, 0xff, 0xff, 0xff, 0xff, 0x40, 0x00, 0x00, 0x00,
  0x30, 0xfa, 0xff, 0xff, 0x1a, 0x00, 0x00, 0x00, 0x73, 0x65, 0x71, 0x75,
  0x65, 0x6e, 0x74, 0x69, 0x61, 0x6c, 0x2f, 0x66, 0x6c, 0x61, 0x74, 0x74,
  0x65, 0x6e, 0x2f, 0x52, 0x65, 0x73, 0x68, 0x61, 0x70, 0x65, 0x00, 0x00,
  0x02, 0x00, 0x00, 0x00, 0x01, 0x00, 0x00, 0x00, 0x40, 0x00, 0x00, 0x00,
  0xa6, 0xfa, 0xff, 0xff, 0x00, 0x00, 0x00, 0x01, 0x14, 0x00, 0x00, 0x00,
  0x24, 0x00, 0x00, 0x00, 0x24, 0x00, 0x00, 0x00, 0x0e, 0x00, 0x00, 0x00,
  0x44, 0x00, 0x00, 0x00, 0x04, 0x00, 0x00, 0x00, 0xff, 0xff, 0xff, 0xff,
  0x04, 0x00, 0x00, 0x00, 0x01, 0x00, 0x00, 0x00, 0x10, 0x00, 0x00, 0x00,
  0x90, 0xfa, 0xff, 0xff, 0x22, 0x00, 0x00, 0x00, 0x73, 0x65, 0x71, 0x75,
  0x65, 0x6e, 0x74, 0x69, 0x61, 0x6c, 0x2f, 0x6d, 0x61, 0x78, 0x5f, 0x70,
  0x6f, 0x6f, 0x6c, 0x69, 0x6e, 0x67, 0x32, 0x64, 0x5f, 0x31, 0x2f, 0x4d,
  0x61, 0x78, 0x50, 0x6f, 0x6f, 0x6c, 0x00, 0x00, 0x04, 0x00, 0x00, 0x00,
  0x01, 0x00, 0x00, 0x00, 0x04, 0x00, 0x00, 0x00, 0x01, 0x00, 0x00, 0x00,
  0x10, 0x00, 0x00, 0x00, 0x16, 0xfb, 0xff, 0xff, 0x00, 0x00, 0x00, 0x01,
  0x14, 0x00, 0x00, 0x00, 0x24, 0x00, 0x00, 0x00, 0x24, 0x00, 0x00, 0x00,
  0x0d, 0x00, 0x00, 0x00, 0x9c, 0x00, 0x00, 0x00, 0x04, 0x00, 0x00, 0x00,
  0xff, 0xff, 0xff, 0xff, 0x0a, 0x00, 0x00, 0x00, 0x01, 0x00, 0x00, 0x00,
  0x10, 0x00, 0x00, 0x00, 0x00, 0xfb, 0xff, 0xff, 0x7a, 0x00, 0x00, 0x00,
  0x73, 0x65, 0x71, 0x75, 0x65, 0x6e, 0x74, 0x69, 0x61, 0x6c, 0x2f, 0x63,
  0x6f, 0x6e, 0x76, 0x32, 0x64, 0x5f, 0x31, 0x2f, 0x52, 0x65, 0x6c, 0x75,
  0x3b, 0x73, 0x65, 0x71, 0x75, 0x65, 0x6e, 0x74, 0x69, 0x61, 0x6c, 0x2f,
  0x63, 0x6f, 0x6e, 0x76, 0x32, 0x64, 0x5f, 0x31, 0x2f, 0x42, 0x69, 0x61,
  0x73, 0x41, 0x64, 0x64, 0x3b, 0x73, 0x65, 0x71, 0x75, 0x65, 0x6e, 0x74,
  0x69, 0x61, 0x6c, 0x2f, 0x63, 0x6f, 0x6e, 0x76, 0x32, 0x64, 0x5f, 0x31,
  0x2f, 0x43, 0x6f, 0x6e, 0x76, 0x32, 0x44, 0x3b, 0x73, 0x65, 0x71, 0x75,
  0x65, 0x6e, 0x74, 0x69, 0x61, 0x6c, 0x2f, 0x63, 0x6f, 0x6e, 0x76, 0x32,
  0x64, 0x5f, 0x31, 0x2f, 0x42, 0x69, 0x61, 0x73, 0x41, 0x64, 0x64, 0x2f,
  0x52, 0x65, 0x61, 0x64, 0x56, 0x61, 0x72, 0x69, 0x61, 0x62, 0x6c, 0x65,
  0x4f, 0x70, 0x00, 0x00, 0x04, 0x00, 0x00, 0x00, 0x01, 0x00, 0x00, 0x00,
  0x0a, 0x00, 0x00, 0x00, 0x01, 0x00, 0x00, 0x00, 0x10, 0x00, 0x00, 0x00,
  0xde, 0xfb, 0xff, 0xff, 0x00, 0x00, 0x00, 0x01, 0x14, 0x00, 0x00, 0x00,
  0x24, 0x00, 0x00, 0x00, 0x24, 0x00, 0x00, 0x00, 0x0c, 0x00, 0x00, 0x00,
  0x44, 0x00, 0x00, 0x00, 0x04, 0x00, 0x00, 0x00, 0xff, 0xff, 0xff, 0xff,
  0x0a, 0x00, 0x00, 0x00, 0x01, 0x00, 0x00, 0x00, 0x08, 0x00, 0x00, 0x00,
  0xc8, 0xfb, 0xff, 0xff, 0x20, 0x00, 0x00, 0x00, 0x73, 0x65, 0x71, 0x75,
  0x65, 0x6e, 0x74, 0x69, 0x61, 0x6c, 0x2f, 0x6d, 0x61, 0x78, 0x5f, 0x70,
  0x6f, 0x6f, 0x6c, 0x69, 0x6e, 0x67, 0x32, 0x64, 0x2f, 0x4d, 0x61, 0x78,
  0x50, 0x6f, 0x6f, 0x6c, 0x00, 0x00, 0x00, 0x00, 0x04, 0x00, 0x00, 0x00,
  0x01, 0x00, 0x00, 0x00, 0x0a, 0x00, 0x00, 0x00, 0x01, 0x00, 0x00, 0x00,
  0x08, 0x00, 0x00, 0x00, 0x4e, 0xfc, 0xff, 0xff, 0x00, 0x00, 0x00, 0x01,
  0x14, 0x00, 0x00, 0x00, 0x24, 0x00, 0x00, 0x00, 0x24, 0x00, 0x00, 0x00,
  0x0b, 0x00, 0x00, 0x00, 0x94, 0x00, 0x00, 0x00, 0x04, 0x00, 0x00, 0x00,
  0xff, 0xff, 0xff, 0xff, 0x1e, 0x00, 0x00, 0x00, 0x03, 0x00, 0x00, 0x00,
  0x08, 0x00, 0x00, 0x00, 0x38, 0xfc, 0xff, 0xff, 0x72, 0x00, 0x00, 0x00,
  0x73, 0x65, 0x71, 0x75, 0x65, 0x6e, 0x74, 0x69, 0x61, 0x6c, 0x2f, 0x63,
  0x6f, 0x6e, 0x76, 0x32, 0x64, 0x2f, 0x52, 0x65, 0x6c, 0x75, 0x3b, 0x73,
  0x65, 0x71, 0x75, 0x65, 0x6e, 0x74, 0x69, 0x61, 0x6c, 0x2f, 0x63, 0x6f,
  0x6e, 0x76, 0x32, 0x64, 0x2f, 0x42, 0x69, 0x61, 0x73, 0x41, 0x64, 0x64,
  0x3b, 0x73, 0x65, 0x71, 0x75, 0x65, 0x6e, 0x74, 0x69, 0x61, 0x6c, 0x2f,
  0x63, 0x6f, 0x6e, 0x76, 0x32, 0x64, 0x2f, 0x43, 0x6f, 0x6e, 0x76, 0x32,
  0x44, 0x3b, 0x73, 0x65, 0x71, 0x75, 0x65, 0x6e, 0x74, 0x69, 0x61, 0x6c,
  0x2f, 0x63, 0x6f, 0x6e, 0x76, 0x32, 0x64, 0x2f, 0x42, 0x69, 0x61, 0x73,
  0x41, 0x64, 0x64, 0x2f, 0x52, 0x65, 0x61, 0x64, 0x56, 0x61, 0x72, 0x69,
  0x61, 0x62, 0x6c, 0x65, 0x4f, 0x70, 0x00, 0x00, 0x04, 0x00, 0x00, 0x00,
  0x01, 0x00, 0x00, 0x00, 0x1e, 0x00, 0x00, 0x00, 0x03, 0x00, 0x00, 0x00,
  0x08, 0x00, 0x00, 0x00, 0x7a, 0xfd, 0xff, 0xff, 0x00, 0x00, 0x00, 0x01,
  0x10, 0x00, 0x00, 0x00, 0x10, 0x00, 0x00, 0x00, 0x0a, 0x00, 0x00, 0x00,
  0x28, 0x00, 0x00, 0x00, 0xe0, 0xfc, 0xff, 0xff, 0x19, 0x00, 0x00, 0x00,
  0x73, 0x65, 0x71, 0x75, 0x65, 0x6e, 0x74, 0x69, 0x61, 0x6c, 0x2f, 0x64,
  0x65, 0x6e, 0x73, 0x65, 0x5f, 0x31, 0x2f, 0x4d, 0x61, 0x74, 0x4d, 0x75,
  0x6c, 0x00, 0x00, 0x00, 0x02, 0x00, 0x00, 0x00, 0x02, 0x00, 0x00, 0x00,
  0x10, 0x00, 0x00, 0x00, 0xc2, 0xfd, 0xff, 0xff, 0x00, 0x00, 0x00, 0x01,
  0x10, 0x00, 0x00, 0x00, 0x10, 0x00, 0x00, 0x00, 0x09, 0x00, 0x00, 0x00,
  0x24, 0x00, 0x00, 0x00, 0x28, 0xfd, 0xff, 0xff, 0x17, 0x00, 0x00, 0x00,
  0x73, 0x65, 0x71, 0x75, 0x65, 0x6e, 0x74, 0x69, 0x61, 0x6c, 0x2f, 0x64,
  0x65, 0x6e, 0x73, 0x65, 0x2f, 0x4d, 0x61, 0x74, 0x4d, 0x75, 0x6c, 0x00,
  0x02, 0x00, 0x00, 0x00, 0x10, 0x00, 0x00, 0x00, 0x40, 0x00, 0x00, 0x00,
  0x00, 0x00, 0x16, 0x00, 0x1c, 0x00, 0x18, 0x00, 0x17, 0x00, 0x10, 0x00,
  0x0c, 0x00, 0x08, 0x00, 0x00, 0x00, 0x00, 0x00, 0x00, 0x00, 0x07, 0x00,
  0x16, 0x00, 0x00, 0x00, 0x00, 0x00, 0x00, 0x01, 0x14, 0x00, 0x00, 0x00,
  0x14, 0x00, 0x00, 0x00, 0x08, 0x00, 0x00, 0x00, 0x00, 0x00, 0x00, 0x02,
  0x28, 0x00, 0x00, 0x00, 0x88, 0xfd, 0xff, 0xff, 0x18, 0x00, 0x00, 0x00,
  0x73, 0x65, 0x71, 0x75, 0x65, 0x6e, 0x74, 0x69, 0x61, 0x6c, 0x2f, 0x66,
  0x6c, 0x61, 0x74, 0x74, 0x65, 0x6e, 0x2f, 0x43, 0x6f, 0x6e, 0x73, 0x74,
  0x00, 0x00, 0x00, 0x00, 0x01, 0x00, 0x00, 0x00, 0x02, 0x00, 0x00, 0x00,
  0x66, 0xfe, 0xff, 0xff, 0x00, 0x00, 0x00, 0x01, 0x10, 0x00, 0x00, 0x00,
  0x10, 0x00, 0x00, 0x00, 0x07, 0x00, 0x00, 0x00, 0x38, 0x00, 0x00, 0x00,
  0xcc, 0xfd, 0xff, 0xff, 0x29, 0x00, 0x00, 0x00, 0x73, 0x65, 0x71, 0x75,
  0x65, 0x6e, 0x74, 0x69, 0x61, 0x6c, 0x2f, 0x64, 0x65, 0x6e, 0x73, 0x65,
  0x5f, 0x31, 0x2f, 0x42, 0x69, 0x61, 0x73, 0x41, 0x64, 0x64, 0x2f, 0x52,
  0x65, 0x61, 0x64, 0x56, 0x61, 0x72, 0x69, 0x61, 0x62, 0x6c, 0x65, 0x4f,
  0x70, 0x00, 0x00, 0x00, 0x01, 0x00, 0x00, 0x00, 0x02, 0x00, 0x00, 0x00,
  0xba, 0xfe, 0xff, 0xff, 0x00, 0x00, 0x00, 0x01, 0x10, 0x00, 0x00, 0x00,
  0x10, 0x00, 0x00, 0x00, 0x06, 0x00, 0x00, 0x00, 0x34, 0x00, 0x00, 0x00,
  0x20, 0xfe, 0xff, 0xff, 0x27, 0x00, 0x00, 0x00, 0x73, 0x65, 0x71, 0x75,
  0x65, 0x6e, 0x74, 0x69, 0x61, 0x6c, 0x2f, 0x64, 0x65, 0x6e, 0x73, 0x65,
  0x2f, 0x42, 0x69, 0x61, 0x73, 0x41, 0x64, 0x64, 0x2f, 0x52, 0x65, 0x61,
  0x64, 0x56, 0x61, 0x72, 0x69, 0x61, 0x62, 0x6c, 0x65, 0x4f, 0x70, 0x00,
  0x01, 0x00, 0x00, 0x00, 0x10, 0x00, 0x00, 0x00, 0x0a, 0xff, 0xff, 0xff,
  0x00, 0x00, 0x00, 0x01, 0x10, 0x00, 0x00, 0x00, 0x10, 0x00, 0x00, 0x00,
  0x05, 0x00, 0x00, 0x00, 0x28, 0x00, 0x00, 0x00, 0x70, 0xfe, 0xff, 0xff,
  0x1a, 0x00, 0x00, 0x00, 0x73, 0x65, 0x71, 0x75, 0x65, 0x6e, 0x74, 0x69,
  0x61, 0x6c, 0x2f, 0x63, 0x6f, 0x6e, 0x76, 0x32, 0x64, 0x5f, 0x31, 0x2f,
  0x43, 0x6f, 0x6e, 0x76, 0x32, 0x44, 0x00, 0x00, 0x04, 0x00, 0x00, 0x00,
  0x10, 0x00, 0x00, 0x00, 0x04, 0x00, 0x00, 0x00, 0x01, 0x00, 0x00, 0x00,
  0x08, 0x00, 0x00, 0x00, 0x5a, 0xff, 0xff, 0xff, 0x00, 0x00, 0x00, 0x01,
  0x10, 0x00, 0x00, 0x00, 0x10, 0x00, 0x00, 0x00, 0x04, 0x00, 0x00, 0x00,
  0x28, 0x00, 0x00, 0x00, 0xc0, 0xfe, 0xff, 0xff, 0x18, 0x00, 0x00, 0x00,
  0x73, 0x65, 0x71, 0x75, 0x65, 0x6e, 0x74, 0x69, 0x61, 0x6c, 0x2f, 0x63,
  0x6f, 0x6e, 0x76, 0x32, 0x64, 0x2f, 0x43, 0x6f, 0x6e, 0x76, 0x32, 0x44,
  0x00, 0x00, 0x00, 0x00, 0x04, 0x00, 0x00, 0x00, 0x08, 0x00, 0x00, 0x00,
  0x04, 0x00, 0x00, 0x00, 0x03, 0x00, 0x00, 0x00, 0x01, 0x00, 0x00, 0x00,
  0xaa, 0xff, 0xff, 0xff, 0x00, 0x00, 0x00, 0x01, 0x10, 0x00, 0x00, 0x00,
  0x10, 0x00, 0x00, 0x00, 0x03, 0x00, 0x00, 0x00, 0x38, 0x00, 0x00, 0x00,
  0x10, 0xff, 0xff, 0xff, 0x2a, 0x00, 0x00, 0x00, 0x73, 0x65, 0x71, 0x75,
  0x65, 0x6e, 0x74, 0x69, 0x61, 0x6c, 0x2f, 0x63, 0x6f, 0x6e, 0x76, 0x32,
  0x64, 0x5f, 0x31, 0x2f, 0x42, 0x69, 0x61, 0x73, 0x41, 0x64, 0x64, 0x2f,
  0x52, 0x65, 0x61, 0x64, 0x56, 0x61, 0x72, 0x69, 0x61, 0x62, 0x6c, 0x65,
  0x4f, 0x70, 0x00, 0x00, 0x01, 0x00, 0x00, 0x00, 0x10, 0x00, 0x00, 0x00,
  0x00, 0x00, 0x16, 0x00, 0x18, 0x00, 0x14, 0x00, 0x00, 0x00, 0x10, 0x00,
  0x0c, 0x00, 0x08, 0x00, 0x00, 0x00, 0x00, 0x00, 0x00, 0x00, 0x07, 0x00,
  0x16, 0x00, 0x00, 0x00, 0x00, 0x00, 0x00, 0x01, 0x10, 0x00, 0x00, 0x00,
  0x10, 0x00, 0x00, 0x00, 0x02, 0x00, 0x00, 0x00, 0x38, 0x00, 0x00, 0x00,
  0x7c, 0xff, 0xff, 0xff, 0x28, 0x00, 0x00, 0x00, 0x73, 0x65, 0x71, 0x75,
  0x65, 0x6e, 0x74, 0x69, 0x61, 0x6c, 0x2f, 0x63, 0x6f, 0x6e, 0x76, 0x32,
  0x64, 0x2f, 0x42, 0x69, 0x61, 0x73, 0x41, 0x64, 0x64, 0x2f, 0x52, 0x65,
  0x61, 0x64, 0x56, 0x61, 0x72, 0x69, 0x61, 0x62, 0x6c, 0x65, 0x4f, 0x70,
  0x00, 0x00, 0x00, 0x00, 0x01, 0x00, 0x00, 0x00, 0x08, 0x00, 0x00, 0x00,
  0x00, 0x00, 0x16, 0x00, 0x1c, 0x00, 0x18, 0x00, 0x00, 0x00, 0x14, 0x00,
  0x10, 0x00, 0x0c, 0x00, 0x00, 0x00, 0x00, 0x00, 0x08, 0x00, 0x07, 0x00,
  0x16, 0x00, 0x00, 0x00, 0x00, 0x00, 0x00, 0x01, 0x14, 0x00, 0x00, 0x00,
  0x28, 0x00, 0x00, 0x00, 0x28, 0x00, 0x00, 0x00, 0x01, 0x00, 0x00, 0x00,
  0x44, 0x00, 0x00, 0x00, 0x04, 0x00, 0x00, 0x00, 0xff, 0xff, 0xff, 0xff,
  0x1e, 0x00, 0x00, 0x00, 0x03, 0x00, 0x00, 0x00, 0x01, 0x00, 0x00, 0x00,
  0x04, 0x00, 0x04, 0x00, 0x04, 0x00, 0x00, 0x00, 0x1e, 0x00, 0x00, 0x00,
  0x73, 0x65, 0x72, 0x76, 0x69, 0x6e, 0x67, 0x5f, 0x64, 0x65, 0x66, 0x61,
  0x75, 0x6c, 0x74, 0x5f, 0x63, 0x6f, 0x6e, 0x76, 0x32, 0x64, 0x5f, 0x69,
  0x6e, 0x70, 0x75, 0x74, 0x3a, 0x30, 0x00, 0x00, 0x04, 0x00, 0x00, 0x00,
  0x01, 0x00, 0x00, 0x00, 0x1e, 0x00, 0x00, 0x00, 0x03, 0x00, 0x00, 0x00,
  0x01, 0x00, 0x00, 0x00, 0x05, 0x00, 0x00, 0x00, 0x50, 0x00, 0x00, 0x00,
  0x34, 0x00, 0x00, 0x00, 0x24, 0x00, 0x00, 0x00, 0x14, 0x00, 0x00, 0x00,
  0x04, 0x00, 0x00, 0x00, 0xd0, 0xff, 0xff, 0xff, 0x19, 0x00, 0x00, 0x00,
  0x00, 0x00, 0x00, 0x19, 0xdc, 0xff, 0xff, 0xff, 0x09, 0x00, 0x00, 0x00,
  0x00, 0x00, 0x00, 0x09, 0xe8, 0xff, 0xff, 0xff, 0x16, 0x00, 0x00, 0x00,
  0x00, 0x00, 0x00, 0x16, 0xf4, 0xff, 0xff, 0xff, 0x11, 0x00, 0x00, 0x00,
  0x00, 0x00, 0x00, 0x11, 0x0c, 0x00, 0x0c, 0x00, 0x0b, 0x00, 0x00, 0x00,
  0x00, 0x00, 0x04, 0x00, 0x0c, 0x00, 0x00, 0x00, 0x03, 0x00, 0x00, 0x00,
  0x00, 0x00, 0x00, 0x03
};
const unsigned int train_model_tflite_len = 10228;
